ा य 81810
t h 65600
न ि</w> 53267
न ा 47094
a n 45854
ो र 41802
th e</w> 41584
i n 40165
ज ा 33432
. 	 32487
थ ा 32337
e r 31080
ो न 30972
ा र 30444
a r 29966
फ ोर 29171
ग ो 27262
् र 27174
o f</w> 26679
a t 24724
r e 24463
ा व</w> 24185
आ र 23674
an d</w> 22801
न ाय 22767
i t 22686
o n 22397
e n 22002
ल ा 21430
ख ा 21319
ब ा 21138
आर ो</w> 21034
o u 20964
a l 20500
ह ा 20473
ना य</w> 20337
म ोन 19531
स ा 19183
स ि 19118
o r 18984
s t 18589
e d</w> 18182
ख ौ</w> 17815
i s</w> 17780
ज ो 17049
ब ि 16531
ग ा 16185
म ा 15969
i n</w> 15944
ब े 15755
द ा 15407
न ो</w> 15270
t o</w> 14991
in g</w> 14873
e s 13688
i l 13283
e s</w> 13135
r o 12489
स े</w> 12300
थ ि 12136
e r</w> 12092
र ा 12050
ो ं 11948
न ि 11917
i c 11860
स ो 11813
o n</w> 11663
ज ाय 11639
a c 11354
i s 10900
a l</w> 10675
द ि 10595
्र ा 10571
े र 10495
o r</w> 10009
ो ।</w> 9917
e l 9880
a s 9854
u r 9830
फ ो 9600
ब ु 9201
a s</w> 9196
t i 8989
जो ं</w> 8952
a n</w> 8862
a t</w> 8716
थ ाय 8625
म ि 8589
न ् 8585
o m 8241
T h 8103
ह ो 8067
ज ि 7952
a m 7875
p l 7777
e c 7738
म ु 7718
ग ु 7668
म ो 7565
at i 7382
d i 7359
ार ि</w> 7337
ब ो 7195
फोर नि</w> 7083
ब ाय 7037
फो र</w> 7033
a d 6959
o l 6957
c h 6864
द ों 6801
फ ा 6725
e n</w> 6691
ल ि 6665
ब ो</w> 6634
ग ि 6612
t r 6539
e m 6421
मोन से</w> 6264
w h 6260
a b 6168
फोर ा</w> 6103
गो ना 5872
ar e</w> 5864
u s 5828
a v 5812
् ल 5771
u n 5752
ार ि 5720
Th e</w> 5658
l o 5566
न ो 5560
i g 5493
s ,</w> 5435
न ा</w> 5432
i d 5413
ह ाय 5357
e t 5344
u l 5267
a g 5236
l y</w> 5180
en t 5165
f or</w> 5148
स े 5136
ला म 5114
i m 5098
e v 5092
य ो</w> 5053
i v 5051
र ि 5010
s .	 5004
it h</w> 5004
द े 4903
्रा य</w> 4898
खा य</w> 4857
w ith</w> 4820
स म 4808
ग े 4802
य ा</w> 4782
य ा 4750
था खाय</w> 4719
स ु 4648
ख ु 4630
o s 4619
a k 4560
नाय नि</w> 4532
द ि</w> 4518
ज े 4513
en t</w> 4501
i r 4470
नि फ 4447
स ोर 4276
ं ग 4257
दा व 4220
ल ाय 4166
ज ेर 4154
ब ा</w> 4140
n o 4096
ro m</w> 4086
फोर खौ</w> 4068
c on 4038
निफ ्राय</w> 4021
गोना ं</w> 4003
th at</w> 4000
e .	 3996
ख ो 3977
e x 3959
re s 3951
द ो 3924
f rom</w> 3923
b e 3914
थ ि</w> 3897
मोन ।</w> 3877
a p 3875
s h 3862
in g 3838
खा लाम 3827
ou n 3814
न ै</w> 3807
e d 3800
a r</w> 3751
स ् 3742
a y</w> 3728
म ह 3725
य ाव</w> 3713
सि न</w> 3701
बा ं 3695
i t</w> 3693
b y</w> 3644
e ,</w> 3643
ब े</w> 3585
p ro 3566
b e</w> 3535
द ं 3515
o d 3510
o u</w> 3397
फ ि 3345
I n 3317
l i 3306
er e</w> 3306
u m 3304
हा ग 3302
e st 3243
था य</w> 3235
ग ाय 3224
जा नाय</w> 3203
ज ौ 3198
c om 3196
a y 3194
an d 3189
c e</w> 3170
ं ख 3169
द ै 3145
l e</w> 3126
o p 3104
म े 3101
्र ि 3086
ह ोन 3084
सा न 3082
ग ोर 3068
y ou</w> 3021
ou r 3008
ए बा</w> 3001
l e 2975
दों मोन।</w> 2974
s u 2973
ati on</w> 2960
q u 2956
o w 2954
बे यो</w> 2929
न ों 2912
ou r</w> 2892
ल ु 2878
th e 2878
or t 2877
f f 2872
्र ा</w> 2870
ati on 2842
p er 2827
था व 2827
दाव बाय 2818
ज ु 2792
ig h 2770
ना नै</w> 2756
ब ार 2750
जा य</w> 2749
a in 2716
il l</w> 2711
s p 2709
o v 2706
स न 2684
b u 2681
er s</w> 2671
ना व</w> 2659
बा ं</w> 2656
e ar 2642
o t 2636
ल ो 2629
गु बु 2620
म ाय 2603
र ो 2593
आ व</w> 2588
नाय ा</w> 2588
at ed</w> 2580
भ ार 2576
क ा 2572
न ु 2549
ह ा</w> 2522
In di 2522
फ ु 2521
it i 2520
व ा 2497
द ु 2490
ख ाय 2466
ब ्ल 2462
it y</w> 2459
ल े 2452
जेर ाव</w> 2441
क ि 2430
on e</w> 2422
मा न 2412
e p 2401
t er 2391
t s</w> 2382
र ाय 2376
मा व 2375
ou s</w> 2368
i st 2367
c an</w> 2362
् ला 2358
स ार 2349
h av 2346
g r 2339
जाय ो।</w> 2335
es ,</w> 2326
s o</w> 2313
h as</w> 2299
बु ं 2289
a ,</w> 2285
w as</w> 2284
f or 2283
म ा</w> 2279
गो बां</w> 2276
ic h</w> 2269
at e</w> 2258
y .	 2241
al l</w> 2239
ल ै 2235
it s</w> 2234
ब्ल ा</w> 2227
s e 2221
नो ं</w> 2221
था नाय</w> 2219
th er</w> 2210
an g 2183
बे रा 2179
o o 2172
i c</w> 2169
हा द 2168
ह ि 2163
ल ा</w> 2162
es t</w> 2161
pl e</w> 2143
u c 2139
सा ब 2138
th is</w> 2130
फोर ाव</w> 2129
भार त 2129
फोर ,</w> 2126
दं ।</w> 2124
a h 2118
द ेर 2115
य ो।</w> 2111
क े 2108
थ ो 2100
स ा</w> 2095
al l 2095
गुबु न</w> 2092
p ar 2078
मो न</w> 2074
गा व 2073
t h</w> 2070
य ै</w> 2069
मह र 2066
es .	 2063
रा ज 2052
स ाय 2044
र ि</w> 2025
ह े 2018
त ा 2016
सि म</w> 2012
i r</w> 2003
त ि 1994
प ु 1990
ब ै 1978
ख ि 1969
wh ich</w> 1966
था व</w> 1964
गा स 1964
गो सो 1962
a .	 1958
प ा 1957
a st 1956
hav e</w> 1952
a d</w> 1935
मो जा 1928
ोन ।</w> 1927
y ,</w> 1914
l d</w> 1904
a j 1902
w or 1898
ह ु 1890
an c 1890
I t</w> 1876
s i 1872
ख ्र 1871
n e 1853
y our</w> 1846
न नि</w> 1840
c l 1833
e as 1827
ur e</w> 1827
म नि</w> 1818
h e 1810
il l 1810
st r 1797
ो ,</w> 1795
गो जा 1791
नाय खौ</w> 1787
नाय ,</w> 1775
t em 1772
थ ु 1771
ज ा</w> 1766
no t</w> 1766
u d 1759
स ं 1758
ं नि</w> 1758
फोर जों</w> 1758
al so</w> 1757
o c 1754
ou t</w> 1754
जो बो 1754
w e 1743
अ न 1743
t ed</w> 1738
om e</w> 1733
नों नि</w> 1729
र े 1728
al ly</w> 1718
e t</w> 1714
os t</w> 1713
an t</w> 1707
सम ाय 1696
d is 1694
ti on</w> 1689
C h 1682
ख र 1679
ग ्रा</w> 1678
ou g 1678
गोना ं 1678
w ill</w> 1677
र ु 1674
or e</w> 1672
' s</w> 1666
्र ाय 1659
ो म 1648
सो ल 1642
ना ंग 1633
il d 1614
ट ि 1612
a f 1610
u t 1594
न े 1585
ौ ।</w> 1573
गि रि 1567
ti on 1566
a in</w> 1546
मि थि 1543
जाय गा 1542
ब ्ला 1540
र नि</w> 1533
r i 1531
ak e</w> 1521
क ् 1510
मु ं 1507
नाय ाव</w> 1506
ना ं 1504
जा ब 1504
ev er 1503
ला ं 1501
t er</w> 1499
बां सिन</w> 1490
सोर नि</w> 1473
t re 1467
1 9 1464
iv e</w> 1464
c h</w> 1457
मा नि</w> 1448
ti m 1442
दा ं 1436
था र 1429
ग ्रा 1422
m ost</w> 1422
in d 1422
ou ld</w> 1422
p e 1421
o ther</w> 1419
र ् 1414
सि न 1413
फ ै 1409
f e 1408
खा ं 1408
सा व 1400
ag e</w> 1393
the ir</w> 1388
बे नि</w> 1385
दो ं</w> 1374
an y</w> 1369
ङ ा 1367
दों मोन</w> 1367
ic al</w> 1358
म ै 1355
ङ ा</w> 1354
जा नो</w> 1353
i es</w> 1352
जोबो र</w> 1352
हा य</w> 1351
ङ ै</w> 1350
ख ौ 1349
ac e</w> 1348
न् दि 1341
en d 1338
गे जेराव</w> 1332
ab le</w> 1331
u re 1330
a w 1327
b r 1324
m on 1321
फ ्र 1313
ग ै 1305
v is 1304
ac h 1302
p re 1301
0 0 1287
a th 1286
न ै 1284
बि नि</w> 1281
ह ै 1279
in e</w> 1278
is h 1276
ग ं 1272
w at 1271
थाय ाव</w> 1266
हाय ो।</w> 1266
m ay</w> 1263
जो ब 1262
हाद ोर 1254
ग ोन।</w> 1253
न जा 1249
v er 1245
es s</w> 1245
था र</w> 1243
d e 1241
न् द 1235
ल ि</w> 1233
ar i 1230
ओ न 1229
न थि 1227
था ं 1227
a i 1226
सम ाव</w> 1224
स ो</w> 1222
हा म 1221
c ar 1220
क ु 1218
नो गोर 1218
v e</w> 1214
S h 1210
es e</w> 1210
गो ज 1207
म ् 1206
an t 1205
ार ा 1203
a us 1201
p r 1197
p ort 1192
on g</w> 1192
ट ा 1190
ङ ाव</w> 1190
el y</w> 1189
म न्दि 1181
en ce</w> 1169
नाय ।</w> 1167
ग ा</w> 1166
I n</w> 1165
un d 1165
द ा</w> 1161
r u 1160
ग थ 1159
lo c 1158
oug h</w> 1157
सु बुं 1156
oo d</w> 1152
oun d</w> 1136
र ा</w> 1135
ाय ा</w> 1135
समाय ना</w> 1133
k no 1123
s e</w> 1119
p res 1119
in f 1118
थ ा</w> 1117
व ,</w> 1116
el l 1113
ent s</w> 1111
मोजा ं</w> 1111
e l</w> 1110
o g 1110
बा हाय 1110
रो खो 1109
ख ोन 1107
a u 1106
बा य</w> 1106
ार ् 1105
ख ा</w> 1099
th er 1097
c ol 1094
igh t</w> 1093
दों ।</w> 1092
f u 1091
g re 1088
दा न 1088
s t</w> 1087
f o 1087
m e 1086
ना थाय</w> 1086
id e</w> 1085
m ore</w> 1084
a m</w> 1081
द ै</w> 1079
आ द 1077
a il 1075
उ नाव</w> 1072
र ं 1069
द ं</w> 1069
ar d 1069
बि यो</w> 1069
गि दि 1068
ख े 1064
गास ै</w> 1061
1 8 1059
t our 1057
जाय ो</w> 1057
प ्र 1055
ur ing</w> 1055
बा दि</w> 1052
सो र</w> 1050
न् थि 1050
m ent</w> 1046
खु ं 1046
जे ब्ला</w> 1045
p h 1044
th r 1044
भ ा 1040
an ce</w> 1040
it e</w> 1039
ो ब 1036
प ि 1034
हो यो।</w> 1034
f am 1032
com m 1031
ब ि</w> 1024
as s 1024
सन स 1023
ec t 1017
थ ै 1016
b l 1015
स रा 1014
c re 1013
सा लि 1011
स ि</w> 1009
p u 1007
ar y</w> 1005
ग ्ल 1002
M ah 1002
um b 995
ov er 995
बा नाय 994
र ै 992
जो ं 989
बे खौ</w> 988
जा दों</w> 987
s y 986
fu l</w> 986
con t 984
ग ार 983
हा जो 982
ओन सोल 982
य ारि</w> 977
b re 977
sh ould</w> 977
ना र 976
en c 975
wh o</w> 973
सरा सनस 970
c ent 968
थाय नि</w> 966
होन ो</w> 965
साय ाव</w> 965
प े 963
es s 963
i f 954
ाय ाव</w> 954
iti on 952
lo o 950
ow n</w> 950
bu t</w> 950
) ,</w> 949
ब ्र 948
th an</w> 948
भारत नि</w> 943
ch ild 942
हाग ौ।</w> 941
त े 940
लो गो 939
s c 936
गो हो 936
ह र 930
उ न 930
ै बो</w> 927
k s</w> 922
बा हा 921
सो मोन 920
ल ाव</w> 919
as t</w> 919
tr i 919
फ ारि 918
lo w 914
kno w 913
ब ै</w> 910
ar g 910
ह ारि 909
m in 909
as h 909
Indi a</w> 908
बि सोरनि</w> 905
m o 904
व ा</w> 902
जौ गा 902
i al</w> 900
s er 900
b ec 900
ul t 898
be en</w> 898
जा दोंमोन।</w> 896
c oun 895
re d</w> 894
महर ै</w> 893
्र ि</w> 892
e g 889
m us 889
or t</w> 888
f l 886
गे जेर 884
सो म 883
li k 882
था ंख 881
सा से</w> 880
आ य 878
हो नाय</w> 874
ेर ि 873
in ter 869
i z 868
c o 868
खा थि 867
c ity</w> 865
ंख ा</w> 863
ब ्रा 862
re l 857
h ol 856
b et 855
बाहा गो 853
A l 852
गो ख्र 850
for m 850
ष ् 849
बे फोर</w> 848
इ न 844
re g 843
the y</w> 843
भ ि 842
u p</w> 838
u e</w> 837
li f 835
मान सि 834
0 0</w> 830
wh ere</w> 830
मुं दा 829
m ar 828
रि मि 826
s ome</w> 822
म न 818
or y</w> 818
ed .	 818
b o 817
at t 816
हाग ्रा 816
re c 814
मा इ 813
r it 811
S t 810
p os 808
गे दे 808
फु ं 808
फ्र ोम 804
ac h</w> 803
Th is</w> 803
थ ोन 802
बाय दि</w> 802
per i 802
in to</w> 801
d uring</w> 800
p o 800
ov er</w> 799
pe o 799
फ ार 797
h is</w> 797
्र े 796
ला मा 796
tem ple</w> 794
dis eas 794
गोजा म</w> 791
oun d 790
व नो</w> 789
जाय गाय 789
ation s</w> 789
मुंदा ंखा</w> 785
ख ै 784
ev el 784
k ing</w> 779
ै नो</w> 778
h er 778
u s</w> 776
n at 775
d r 774
साब सिन</w> 773
ou t 772
il d</w> 771
am e</w> 771
दा न</w> 768
ay s</w> 768
wh en</w> 764
खु दि 762
o ff 760
मा नि 759
f ac 758
know n</w> 758
गो न</w> 756
el l</w> 754
फ े 753
ac c 753
बु हु 753
ट े 752
t w 750
y ear 749
ज ो</w> 748
ख्र ु 748
igh t 747
or d 745
हे फा 745
गाव नि</w> 744
I f</w> 743
फोर ा 742
th ese</w> 741
दावबाय ारि 741
he al 741
s ur 740
er ,</w> 739
is t</w> 739
ing s</w> 739
ख ार 736
थ े 735
ic e</w> 734
ल नि</w> 733
ing .	 733
आर ि 730
मा खा 725
बेरा म 724
i on 722
ur al</w> 722
स नि</w> 721
d uc 721
t o 721
गा हाय</w> 721
m any</w> 720
ध ोर 719
im port 719
ing ,</w> 719
u g 717
w ay</w> 717
f in 715
er al 715
दों मोन 715
lik e</w> 715
ad e</w> 714
b od 712
जाय ा</w> 711
tr ac 711
द ाय 710
जा रिमि 710
सि गा 710
i f</w> 709
h ar 709
t ak 708
h el 706
मोन से 706
सो लाय 706
स ारि 704
w ere</w> 704
R aj 704
ना रि</w> 704
बु ं</w> 704
र ाव</w> 703
k m 703
ेर े 703
ab out</w> 703
os e</w> 703
ou s 701
कि . 701
लै थो 700
गं से</w> 700
pro v 699
b ac 698
न ङा 697
s it 697
f ir 697
था इ 696
on ly</w> 696
फा हाम 692
ul ar</w> 692
child re 692
ण ् 691
फि सा</w> 691
g l 688
ज ि</w> 687
न द 686
pl ace</w> 686
at ing</w> 685
tim e</w> 685
al s</w> 684
दे हा 684
c as 683
c u 681
हा ब 680
नि ख्रु 680
बा व 679
cl ud 679
द ोन 678
ec t</w> 677
thr ough</w> 677
बाय ।</w> 675
c aus 674
फि न 672
ं गा 671
फ्रोम बो</w> 670
स ेर 669
थु म 669
स ोन 668
af ter</w> 668
हो ब 667
गि बि</w> 666
i k 665
ab l 665
er .	 663
हा बा 663
j o 662
r is 661
p t 661
थि ं 658
d o 656
नाय जों</w> 656
s m 655
P r 655
आद ार 655
कि. मि 655
peo ple</w> 654
गा ब 652
खा मानि 651
i ous</w> 650
su ch</w> 649
ation al</w> 649
fam ous</w> 649
थ ोर 647
is h</w> 646
गि रि</w> 646
s el 645
th ere</w> 645
गास ैबो</w> 645
u m</w> 644
मु वा 644
h o 642
ar ch 642
सो ना 642
ar e 638
ह ार 636
ला नि</w> 636
in clud 635
il t</w> 635
जाय गा</w> 635
i th 634
थांख ि 634
ख न 633
जि र 633
i on</w> 632
m ent 630
p op 630
गो दान</w> 629
h ist 628
खालाम नो</w> 628
p ati 626
बो सोर 626
ver y</w> 625
st at 624
ig n 624
tion s</w> 624
t ing</w> 620
h y 620
स् त 620
जु दि</w> 620
o f 619
en tr 619
ह म 618
c ap 616
on g 616
i p 615
iti es</w> 612
v ari 611
t u 611
गोज ोन 611
आ इ 609
माखा से</w> 608
r iv 607
t e 606
होन ाय 606
tem pl 606
d es 605
ला इ 605
il e</w> 605
inf ec 605
w ar 604
l arg 603
जा गाय 601
गो सार 601
K eral 599
coun tr 599
i d</w> 598
sp ec 598
धोर ोम 598
बा दि 597
आर ि</w> 596
गो ब्रा 595
र ों 594
com pl 593
स र 592
स म</w> 591
n u 591
en d</w> 591
en ti 591
सा म 591
लोगो से</w> 591
v i 590
e ff 589
नाय नो</w> 589
Indi a.	 589
मन दि 589
गा सि 586
थाय ा</w> 585
गथ ’ 585
द ोर 584
जि उ 584
ख म</w> 583
re st 582
दि हु 582
er n</w> 581
l and 580
गेदे र</w> 580
import ant</w> 578
a z 577
गोज ौ</w> 577
ल ् 576
di ff 576
न ेर 574
जा व 572
A n 571
ब ् 570
नांग ौ।</w> 570
ो म</w> 569
रं जा 568
1 5 567
al ,</w> 565
बि फा 565
क ेरे 564
h ear 564
ज र 564
re e</w> 564
m il 563
an s</w> 563
loo d</w> 561
ड ि 560
बि जिर 558
b el 556
e y 555
t ake</w> 555
P ar 555
a ir 554
er c 554
द ो</w> 553
v ir 553
h i 553
ोन ा</w> 553
we en</w> 553
ं खा 552
m ade</w> 552
त ् 551
सि म 551
दि न्थि 551
ol d</w> 550
bu ilt</w> 550
बेरा मि 550
p al 548
दा ब 548
wat er</w> 548
1 6 547
ग नाय 547
ex c 547
vis it</w> 546
खा जा 545
दं ,</w> 545
m ed 544
fir st</w> 544
ख माय 543
जि राय 543
स मा 541
बि सोर</w> 541
लि र 541
हाद र 541
or s</w> 540
ल ’</w> 538
दि नथि 538
d evel 537
p ur 537
cent ur 537
A r 536
था ब 536
T em 534
फोर माय 534
ro w 534
ed ,</w> 534
tw o</w> 534
मोन दां 533
qu e</w> 533
s k 532
बि सोर 532
iti on</w> 532
1 7 531
b le</w> 531
बे याव</w> 531
bet ween</w> 530
ह ोर 527
b lood</w> 526
गेजेर जों</w> 526
m an 525
था खाय 524
st ate</w> 524
ti v 524
es h 523
भ ु 521
बे से 519
e p</w> 518
ev en</w> 517
tre at 517
g et</w> 515
w ell</w> 514
ig h</w> 514
ain s</w> 514
oug h 514
l and</w> 511
con s 511
ever y</w> 511
बाय दि 510
ol og 510
childre n</w> 510
होन ना</w> 509
त ्रि 508
h igh 508
ङ ो।</w> 508
फ ्ल 507
d ec 507
er g 507
आ ग 506
l d 506
b est</w> 506
र ,</w> 505
r ic 505
थाव नि 505
ser v 504
) .	 503
et s</w> 503
ज ोन 502
सा न</w> 501
द ् 500
h and 500
w ith 500
जेर ै</w> 500
दिहु न 500
ग ोन 499
ला व 499
गा न 499
f ul 498
क ार 497
a i</w> 496
ङ ारि</w> 496
सो मो 496
साव ग 496
सोम जि 496
हा ं 495
फ ाय 494
थ ै</w> 494
on d 494
Indi an</w> 494
भ े 493
us ed</w> 493
मोजा ं 493
v al 492
s ide</w> 491
re m 491
est in 491
रा व 489
जाय ा 489
जाय ो,</w> 489
खालाम नाय</w> 489
गो सो</w> 488
जाय खौ</w> 488
tr ad 488
per s 488
खुदि या 488
n or 486
er ed</w> 486
्राय ै</w> 486
au ti 486
lif e</w> 486
em b 484
गो थार</w> 483
k m</w> 481
h e</w> 481
at trac 481
ation .	 480
द ङ 479
pu r</w> 479
ar ound</w> 478
फो थाय 478
pl ac 478
s o 477
p er</w> 477
मोन नाय</w> 477
दे हा</w> 477
आ नजा 476
re n 476
is e</w> 476
प्र दे 475
जा दों।</w> 474
e y</w> 473
गासि नो</w> 473
गा ज 472
ad d 472
दोंमोन ,</w> 472
था सारि 471
Th ere</w> 471
i ent</w> 470
दा र</w> 470
be auti 470
e w 469
सो होर 469
t ow 468
सा से 468
थाय खौ</w> 468
ै ,</w> 467
व ार 467
ti ve</w> 467
स ्रि 466
म ि</w> 466
o b 466
था म</w> 465
u p 464
h igh</w> 464
जि ब 464
ो ं</w> 463
सि ङाव</w> 463
ec ted</w> 463
vis it 463
t ic 462
हाग ौ</w> 462
सा र</w> 461
c r 460
. ए 460
जा ब</w> 460
oun t 460
मान ोना</w> 460
1 0</w> 459
d ep 459
ख म 459
फोर बो 459
bod y</w> 459
य ो,</w> 458
it al</w> 458
थि नि</w> 458
मोन नो</w> 457
ap p 457
द र 456
im m 456
c ult 455
at es</w> 455
गु बै</w> 455
सन देर 455
heal th</w> 455
था खो 454
सा नि</w> 454
par t</w> 454
n umb 453
हा जो</w> 453
ch ild</w> 453
ज गाय 451
p ic 451
खा व 451
or d</w> 451
मि रु 451
लाम ा</w> 451
हि साब 451
थो न</w> 451
us t</w> 450
थाव नि</w> 449
थि या</w> 448
बानाय नाय</w> 448
नाय ा 446
00 0</w> 446
ला य</w> 445
tr an 445
est iv 445
g o 444
tr av 444
loc ated</w> 444
1 0 443
n o</w> 443
m aj 443
in cre 443
फ ्रा 442
u ated</w> 442
k ed</w> 442
b ab 442
or n 442
थि खौ</w> 442
लाय ाव</w> 442
b ir 441
f i 441
जा नायनि</w> 441
रोखो मनि</w> 441
devel op 441
ar m 440
it y.	 440
su p 440
अन जि 440
ब्ला बो</w> 440
i a</w> 439
on s</w> 439
मो दो 439
lo w</w> 439
ग्ल ोब 439
in t 438
ला स 437
ol d 437
Raj as 437
s ou 436
नांग ौ</w> 436
ण् ड 436
k ,</w> 435
f ood</w> 434
सोर गिदि 434
ख ्रि 432
h al 432
ध ् 432
in c 430
जे ं 430
Mah ar 430
गा हाय 429
ort h</w> 429
for e</w> 429
भारत ाव</w> 429
होब था 429
च ि 428
जाय ो 428
ब र 427
ल ्ल 427
a ff 427
गि र 427
ब ोर 426
गा मि 426
str uc 426
Pr ad 426
u ally</w> 425
d o</w> 425
c ur 425
जा होन 425
सोल ों 425
c all 424
en s 423
मह ारा 423
si on</w> 423
त ि</w> 422
d ay</w> 422
सम नि</w> 422
बां द 422
gre at</w> 422
्ल ाय 421
सरासनस ्रायै</w> 421
g en 420
सा जाय 420
बो थोर 419
हाय ो</w> 419
se e</w> 419
द नि</w> 418
द ाव</w> 418
om s</w> 418
ex peri 418
दान ख 418
f ort 417
l iv 415
ग ौ 415
खर ं 415
arch it 415
c er 414
ला खि 414
al .	 414
am m 414
वा र</w> 413
incre as 413
H e</w> 412
m ake</w> 412
बेरा म</w> 412
सरासनस ्रा</w> 412
स ,</w> 411
फ ा</w> 411
en g 411
खा म 411
be ing</w> 411
h ad</w> 410
B h 409
ev er</w> 409
com e</w> 409
th ree</w> 408
an ,</w> 408
माय ा</w> 408
ist s</w> 408
d ay 407
व ारि</w> 407
खालाम ो।</w> 407
uc h</w> 407
स ्रा 406
d h 406
गै या 406
th en</w> 405
i ,</w> 404
फा ं 404
जे न 404
l in 403
व ाव</w> 403
H I 403
मु हि 403
er s,</w> 402
सि बि 402
फा लि 402
ure s</w> 402
k .	 401
W h 401
जा हो 401
फोर नो</w> 401
di st 401
बै सो 401
ever ,</w> 401
c lo 400
या न</w> 400
गाय सन 400
गुबु न 399
आ खाय 398
A m 398
थ ो</w> 398
er ing</w> 398
गो जौ 398
गे जे 398
दु ं 398
str ic 398
म ाव</w> 397
s ec 397
खौ बो</w> 397
स न</w> 396
b as 396
टा र</w> 396
गोब्रा ब</w> 396
a x 395
d s</w> 394
जा दोंमोन</w> 394
बि बार 394
the m</w> 394
sy m 394
फ राय 393
त ु 392
F or</w> 392
fo od 392
ल ’ 391
an ti 391
था न 391
बि बा 391
wor ld 391
diff er 391
v en 390
जा नाय 390
or g 390
ad v 390
y s 389
ग ो</w> 389
w al 389
g u 389
खाय से</w> 389
t en</w> 388
’ s</w> 388
फोर आ</w> 388
मि न 388
t y 387
ला नो</w> 387
am b 387
नों था 387
ब्ला ,</w> 387
म ु</w> 386
hist or 386
ग न 385
g ood</w> 385
के न 385
archit ect 385
जा थाव</w> 384
.	 बेयो</w> 384
call ed</w> 384
e ar</w> 383
L ord</w> 383
con d 383
हारि मु 383
beauti ful</w> 383
र ु</w> 382
हा नाय</w> 382
d el 381
ना नै 381
ition al</w> 381
hear t</w> 381
ar t 380
फोर ।</w> 380
e w</w> 379
l it 379
त ा</w> 378
b an 378
ag n 378
मह र</w> 378
गोख्र ों</w> 378
आ व 376
c entr 376
re qu 376
ला फा 376
हेफा जाब 376
A f 375
मन्दि र 375
रोखो म 375
l ess</w> 374
अ र 374
i ev 373
er s.	 373
ot h</w> 373
19 9 373
numb er</w> 373
fe w</w> 372
भा इ 372
फार से</w> 372
नङा ।</w> 371
h ot 370
Y ou</w> 370
दावबाय नाय</w> 370
गोसो खां 370
und er</w> 370
ल ,</w> 369
f estiv 369
फोर निफ्राय</w> 369
गे ले 369
मिथि ंग 369
th ose</w> 368
आ दार</w> 367
ar ,</w> 367
सा लि</w> 367
il y</w> 367
ain t 367
क ा</w> 366
बि लो 366
is m</w> 366
ब ु</w> 365
p ol 365
मोन ो।</w> 365
बि मा 365
if ic 365
जोबो द</w> 364
माइ थायाव</w> 364
r ang 363
M umb 363
p ec 363
5 0</w> 363
ar t</w> 363
wh ile</w> 363
हिसाब ै</w> 363
सोरगिदि ं</w> 363
य ो 362
p or 362
सोमोन ् 362
r a 361
h ere</w> 361
P al 361
हो यो</w> 361
निफ ्राय 361
रै खा 361
म ार 360
ation ,</w> 360
जाय फोरा</w> 359
बो ,</w> 359
फा लां 358
a k</w> 357
w e</w> 357
g iv 357
सा लाय 357
कि.मि .</w> 357
मा न</w> 356
ow ever,</w> 356
था ं</w> 355
ti c</w> 355
ब य 354
f ol 354
बि बां 354
आ ला 353
en jo 353
लो म 353
मुं दां 353
aus e</w> 353
l u 352
m od 352
no w</w> 352
e - 351
er v 351
थाय ो।</w> 351
गु फु 351
pro duc 351
an ts</w> 350
बा हाग 350
बो सोर</w> 350
anc ient</w> 350
निख्रु इ</w> 350
सोमो नां 350
st e 349
फो नां 349
ज य 348
ज ोर 348
जा नाय,</w> 348
at h</w> 348
ला नाय</w> 348
सा हा</w> 348
सि कि 348
av ail 348
दै दे 348
wor ld</w> 348
ब ारि</w> 347
क ल 347
रा हा 346
Sh iv 346
न खर 345
st re 345
न् ट 345
o p</w> 344
सि नाय 344
गोनां ।</w> 344
फ ्राय</w> 343
t ur 343
D el 343
जा से</w> 343
बु थुम 343
दे हाय 343
नु नो</w> 343
भारत ारि</w> 343
ब नाय</w> 342
v ill 342
n ing</w> 342
सि ं 342
un g 342
सु बुं</w> 342
गोर ोब 342
आरि मु 342
v acc 341
in v 341
id es</w> 341
नों खौ</w> 341
ish ed</w> 341
1 2 340
K h 340
3 0</w> 340
H ind 340
न् दु 340
be fore</w> 340
u al</w> 339
खा मानि</w> 339
खा नथि 339
diseas e</w> 339
ख ि</w> 338
p an 338
ओ ं 338
.	 बे</w> 338
बा ला 338
el s</w> 338
मो सा 338
हे ं 338
ब ारि 337
c anc 337
h ill 337
B rit 337
ro s 337
नेर सोन 337
मुंदां खा 337
ाय ारि</w> 336
year s</w> 336
बि र 335
मु सु 335
ंग ्रा 335
ai d</w> 335
जायगाय ाव</w> 335
दोर ो 335
m al 334
in ce</w> 334
जा गोन।</w> 334
y ing</w> 333
खै फो 333
sm all</w> 333
maj or</w> 333
आ बुं</w> 332
स ्रि</w> 332
su b 332
for m</w> 332
गोसो बो 332
pati ent</w> 332
इ उ 331
था इ</w> 331
es h</w> 331
1 2</w> 330
m ak 330
an ch 330
ex erc 330
l ing</w> 329
M ar 329
f ru 329
ना नि</w> 329
मोन ् 329
थाव ना</w> 329
2 00 328
a ut 328
l ong</w> 328
m ain</w> 328
था बाय 328
om e 328
m uch</w> 327
oc i 327
r y</w> 326
n am 326
प ् 326
w om 326
m at 326
m ount 326
ङ ो</w> 326
st ill</w> 326
नि उ 326
जि व 326
eg et 326
य े 325
r on 325
प ार् 325
M an 325
j ust</w> 325
templ es</w> 325
नि या</w> 324
ब ोन 323
c an 323
ए ल 323
खाय ै</w> 323
1 5</w> 322
i l</w> 322
di v 322
av e</w> 322
und er 322
h i</w> 321
th ing</w> 321
सा इ 321
सि या 321
रा न 321
hel p</w> 321
u k 320
r ul 320
e ach</w> 320
ए म 320
pop ul 320
Keral a</w> 320
H im 318
जा नानै</w> 318
ut e</w> 318
sel f</w> 318
आ थि 317
n ess</w> 317
O n 317
E n 317
नो ,</w> 317
bec ause</w> 317
बाहाग ो</w> 317
a ur 316
गो लाव</w> 316
मै खु 316
cap ital</w> 316
ल ै</w> 315
न ,</w> 315
er y</w> 315
is ,</w> 315
em ent</w> 315
t ,</w> 314
t own</w> 314
गो मो 314
wor k</w> 314
खोन ् 314
are a</w> 313
v eget 312
उ ना 312
it is</w> 312
जाय खि 312
bu ild 312
si on 312
over n 312
1 4 311
ह ो</w> 311
m et 311
ac k</w> 311
मु लै 311
खाय नो</w> 311
हि मा 311
अन गाय 311
सिगा ं</w> 311
साम लाय 311
आ खु 310
e br 310
N ational</w> 310
al ity</w> 310
थार ैनो</w> 310
u t</w> 309
d own</w> 309
c our 309
s ever 309
ए न 309
p ort</w> 309
en s</w> 309
j u 308
B ud 308
हेफा जाब</w> 308
U n 307
st and 307
रा जा 307
जे बो</w> 307
मन्दि र</w> 307
ष् ट 307
differ ent</w> 307
फालां गि 307
f ound</w> 306
जा नाय।</w> 306
al ong</w> 306
बे नि 306
लु बै 306
hol id 306
pop ular</w> 306
नोंथा ङा</w> 306
t le</w> 305
गो र</w> 305
ag es</w> 305
caus e</w> 305
सावग ारि 305
मोदो म 305
आ म 304
सो लि 304
मि रु</w> 304
sit uated</w> 304
न खौ</w> 303
सि नि</w> 303
mus t</w> 303
मोन नै 302
जायगा नि</w> 302
G o 301
res t</w> 301
le g 301
eff ec 301
मनदि र 301
a ir</w> 300
ओ ंख 300
ch ang 300
बांद ्राय</w> 300
2 0</w> 299
A s</w> 299
n ed</w> 299
ख ्ल 299
f er 299
इ से</w> 299
su g 299
दैदे न 299
G u 298
it y,</w> 298
खा बु 298
bac k</w> 298
b oth</w> 297
गु वार</w> 297
ati ve</w> 297
पु र</w> 297
km s</w> 297
ल ों 296
रो जा</w> 296
गाव सोरनि</w> 296
ne ar</w> 296
जायगा ।</w> 296
car v 296
ash tr 296
fin d</w> 296
हा न 295
खो ला</w> 295
ear ly</w> 295
Indi a,</w> 295
y ear</w> 294
था नो</w> 294
नाय है 294
बि गु 294
रा ं 294
राय जो 294
ne w</w> 294
Tem ple</w> 294
2 0 293
M ad 293
o re 293
बा नि</w> 293
mon th 293
larg e</w> 293
ब ाव</w> 292
य ारि 292
d om 292
h er</w> 292
â € 292
for t</w> 292
गिदि ं 292
्र ु 291
खा न्थि 291
जो थोन 291
लै थो</w> 291
we e 291
d estin 290
b i 290
con n 290
गोजा नाव</w> 290
nu tr 290
गो जो 289
सा ह 289
जोब ोर 289
tour ist</w> 289
सोना ब</w> 289
p il 288
बुहु मनि</w> 288
ल े</w> 287
r ich</w> 287
l es</w> 287
मु लु 287
ul t</w> 287
sym pt 287
ए इ 286
p s</w> 286
at er</w> 286
खा जा</w> 286
ec tion</w> 286
जारिमि नारि</w> 286
सिकि त 286
त ार 285
म स 285
h ous 285
di stric 285
gr ou 285
बेरा मनि</w> 285
compl et 285
द ब 284
us ually</w> 284
all s</w> 284
श ि 283
बा इ 283
बि थांखि 283
et y</w> 283
लु नाय</w> 283
हा नजा 282
मि टार</w> 282
नो गोर</w> 282
cont ro 282
n .	 281
t .	 281
g ard 281
in s</w> 281
थाय फोर</w> 281
Th ey</w> 281
खे ब 281
tak en</w> 281
treat ment</w> 281
h ou 280
it ed</w> 280
et t 280
स् था 280
फि सा 280
मे जे 280
बार देर 280
हाबा फारि 280
दङ ।</w> 280
ध ा 279
ौ ,</w> 279
m is 279
ना गिर 279
नाय बिजिर 279
be ach 279
गै य 279
म ,</w> 278
s im 278
ic i 278
सो दो 278
मोजा ङै</w> 278
नांग ोन।</w> 278
गै यै</w> 278
a j</w> 277
s w 277
M al 277
o w</w> 277
th ough</w> 277
नाय ै</w> 277
av es</w> 277
माय ाव</w> 277
दु ं</w> 277
पु र 277
फ सं 276
r a</w> 276
ic k 276
मे ले 276
fo rest 276
ल ु</w> 275
ल ʼ 275
त ्र 274
म ार् 274
ल ेर 274
ग ाव</w> 274
गो थां</w> 274
at e 274
em or 274
ंग ा</w> 274
गिरि फोरनि</w> 274
क नि</w> 273
M us 273
, 000</w> 273
as s</w> 273
lo s 273
खु लि 273
स् व 273
e f 272
अ दे 272
in es</w> 272
ला बो 272
us e</w> 272
आ ं</w> 271
w ays</w> 271
राज ा</w> 271
r ound 270
गा ं 270
दा जाब 270
am ong</w> 270
ex pl 270
दै नि</w> 270
of ten</w> 270
Bud dh 270
ग र 269
h ome</w> 269
T r 269
मोन नै</w> 269
गु बै 269
लि य 269
थाव ।</w> 269
mon um 269
comm un 269
फोनां जाब 269
व े 268
b er 268
bel iev 268
on d</w> 267
ther ap 267
rel ig 267
n ational</w> 266
H owever,</w> 266
अ ब्ला</w> 266
an a</w> 266
थो जासे</w> 266
साय ख 266
खौ नो</w> 266
Mahar ashtr 266
v e 265
ad ,</w> 265
ov e</w> 265
थु लु 265
aw ay</w> 265
नोगोर नि</w> 265
gre en</w> 265
हर खा 265
g o</w> 264
g e</w> 264
मो ना 264
ch o 264
bec ome</w> 264
भाइ रा 264
loc al</w> 263
आनजा द 263
avail able</w> 263
u r</w> 262
स् ट 262
राज मह 262
ure .	 262
includ e</w> 262
खा ला 261
थाय ारि</w> 261
फा न 261
HI V</w> 261
m os 260
R o 260
p ing</w> 260
ना ं</w> 260
जा नाया</w> 260
गो दो 260
सुबुं फोरा</w> 260
ह गार 259
c al 259
h ill</w> 259
नाय - 259
दि ं 259
sever al</w> 259
c are</w> 258
प ार 258
च ा 258
P l 258
जा बाय</w> 258
खा ं</w> 258
लाय ा</w> 258
रोखो म</w> 258
o t</w> 257
at ely</w> 257
बा र</w> 257
गा थोन 257
ic es</w> 257
थाय फोरनि</w> 257
ex t 257
ब्र ै</w> 257
केरे लानि</w> 257
ओंख ार 257
e qu 256
i ally</w> 256
w ould</w> 256
st y 256
sh op 256
s le 255
न् थि</w> 255
ot t 255
s l 254
ac tiv 254
ne ed 254
cont in 254
riv er</w> 254
Rajas th 254
s ign 253
गा ग्लोब 253
as ,</w> 253
फो लेर 253
am ,</w> 253
हाय ा 253
res p 253
ain ed</w> 253
val le 253
स माव 252
e um</w> 252
h our 252
S ou 252
d ays</w> 251
P ro 251
जा हा 251
en ,</w> 251
बे ंख 251
थि लि 251
id e 251
col l 251
pil gr 251
d ue</w> 250
ला ,</w> 250
सु ं 250
गोर ा 250
ओनसोल नि</w> 250
K al 249
t t 249
at ory</w> 249
बा द 249
pl e,</w> 249
दाव बाय</w> 249
गोर लै 249
pres s 249
1 3 248
l ed</w> 248
ग थाब 248
व बो</w> 248
h ab 248
जो थोन</w> 248
tri b 248
enjo y</w> 248
c c 247
क र 247
s af 247
' t</w> 247
o od 247
सोर जि 247
tim es</w> 247
iz ed</w> 247
off ers</w> 247
द ार 246
s ome 246
b us 246
जा उन 246
.	 बे 246
था म 246
ला ंग 246
d ru 245
un c 245
est ern</w> 245
ओनसोल ाव</w> 245
includ ing</w> 245
trad itional</w> 245
स ारि</w> 244
ब नि</w> 244
न ’ 244
an k 244
हा नि</w> 244
दा ं</w> 244
गि या 244
नार सिन 244
heal th 244
i an</w> 243
K ol 243
w ar</w> 243
बा जा 243
ेर ा</w> 243
wh ite</w> 243
गुफु र</w> 243
य ार 242
a 's</w> 242
an im 242
था था 242
er s 242
फोर नि 242
di et</w> 242
या म 242
देहा नि</w> 242
pro gr 241
खां नाय</w> 241
होनाय नि</w> 241
gen er 241
g h 240
जा बाय।</w> 240
बि दि 240
un i 240
गिरि फोरा</w> 240
comm on</w> 240
vari ous</w> 240
स ै 239
su ff 239
गोजो न</w> 239
k e 238
ad s</w> 238
फ्र ोम</w> 238
गोहो म 238
धोरोम ारि</w> 238
with in</w> 238
d u 237
d ro 237
s al 237
th em 237
जा दों 237
at s</w> 237
नाय फोरा</w> 237
बा ज 237
मोन फ्रोमबो</w> 237
सि मा 237
जो ंनि</w> 237
ro y 237
be aut 237
sh r 237
के ल</w> 237
par tic 237
हादोर ारि</w> 237
ard s</w> 237
imm un 237
मिथिंग ायारि</w> 237
c el 236
खा बु</w> 236
be g 236
रो खा</w> 236
nor m 236
प्रदे श 236
org an 236
c or 235
K ash 235
s ol 235
t our</w> 235
g ar 235
दि ल्ल 235
ग्रा फोरनि</w> 235
कि.मि . 235
बिसोर ो</w> 235
Brit ish</w> 235
ह ते 234
c over 234
m eas 234
उ न</w> 234
st ar 234
जौ थायाव</w> 234
जु ना 234
नु जा 234
मुंदांखा ।</w> 234
ड े 233
ना गार 233
गो थ 233
थि याव</w> 233
जाय नि</w> 233
गास ै 233
cas es</w> 233
adv ent 233
h um 232
ro c 232
रा इ 232
फो जोब 232
se t</w> 232
ओन सो 232
centur y</w> 232
s il 231
थ ्रि 231
हो जानाय</w> 231
ch ar 231
गि बि 231
li c</w> 231
मे ल 231
लां नाय</w> 231
- बि 230
सा ंग्रा 230
दि प 230
em s</w> 230
wh at</w> 230
दावबाय ारि</w> 230
लै खोन 230
experi ence</w> 230
त नि</w> 229
s un 229
f our</w> 229
an .	 229
st one</w> 229
ac t</w> 229
sur round 229
Af ter</w> 229
l ong 228
ग लाय 228
oo l</w> 228
राज स्था 228
pre v 228
सेर ाव</w> 228
अदे बानि</w> 228
आ बु 227
म हा 227
रा ं</w> 227
ay ,</w> 227
Prad esh</w> 227
स है 226
c ent</w> 226
f ast 226
f ive</w> 226
ac k 226
रु जु 226
ने म 226
ther n</w> 226
सोमोन दो 226
ug h 226
सिम बो</w> 226
n ,</w> 225
ar i</w> 225
गो हो</w> 225
ay .	 225
tour ists</w> 225
nat ural</w> 225
बुहु म 225
गाज ्रि 225
n ame</w> 224
g row 224
in ation</w> 224
जा नो 224
ar ly</w> 224
ough t</w> 224
Wh en</w> 224
आ थिं 223
p ass 223
थाय ा 223
ab ad</w> 223
ag ain 223
ex am 223
sp re 223
ne ed</w> 223
her it 223
lit tle</w> 223
H e 222
m er</w> 222
मोन ,</w> 222
सोर ा 222
ros s</w> 222
r e</w> 221
d et 221
बे र 221
गु दुं</w> 221
या नि</w> 221
देर सिन</w> 221
bre ath 221
स ौ 220
f res 220
an i</w> 220
re s</w> 220
ला ।</w> 220
थि खि 220
wh ol 220
res s 220
साब ना 220
tion .	 220
दावबायारि फोरनि</w> 220
गेजे र</w> 220
दोरो ङारि</w> 220
आम ेरि 220
n s</w> 219
व हाय</w> 219
at ,</w> 219
बो है 219
दावबाय नायनि</w> 219
बुं नाय</w> 219
se e 219
रे ल</w> 219
ure ,</w> 219
इन जु 219
c am 218
A t</w> 218
in d</w> 218
on ,</w> 218
en .	 218
थाय ,</w> 218
सान फ्रोमबो</w> 218
सिन थार</w> 218
ph ys 218
थांख ि</w> 218
आय जो 218
reg ion 218
hy a</w> 218
ty p 218
sympt oms</w> 218
ाय ा 217
es pec 217
ic ated</w> 217
सो न</w> 217
गु र 217
ad .	 217
गाज ्रि</w> 217
आ गो 216
ए ख 216
C o 216
an other</w> 216
रै खाथि 216
plac es</w> 216
c le 215
in t</w> 215
जा न 215
फोर ों 215
re ,</w> 215
थि ं</w> 215
em ent 215
गोहो म</w> 215
Al l</w> 215
ris k</w> 215
केन सार 215
y ou 214
K o 214
उ दां 214
S ome</w> 214
en se</w> 214
st it 214
ain ing</w> 214
bre ak 214
inter est 214
स्रा ं 214
निउ त्रि 214
आ ंखा 213
स ्लाय 213
ल ʼ</w> 213
o d</w> 213
o id</w> 213
re as 213
is .	 213
Th ese</w> 213
हाय े 213
pro c 213
end s</w> 213
with out</w> 213
आथि खा 213
जायखि जाया</w> 213
espec ially</w> 213
न ङै</w> 212
A s 212
w ell 212
फोर बो</w> 212
con struc 212
गोनां थि</w> 212
ग हे 211
o m</w> 211
6 0</w> 211
गा ब</w> 211
हाग ोन।</w> 211
गिदि र</w> 211
fac t 211
des ign 211
cons id 211
2 5</w> 210
स खौ</w> 210
y a</w> 210
s and 210
est abl 210
all erg 210
समाय ना 210
गेदे मा</w> 210
vi ew</w> 210
med ic 210
Kash m 210
c ri 209
हो दोंमोन।</w> 209
्ल े 209
बां सि 209
क् ट 209
fe el</w> 209
हाम ना</w> 209
holid ay</w> 209
d on 208
d ev 208
बार ाय 208
ep at 208
ब्र ु 208
जोन ोम</w> 208
giv en</w> 208
div id 208
ब हा 207
P un 207
गो बा 207
बि खौ</w> 207
न् द</w> 207
या म</w> 207
जेर ै 207
गोर लै</w> 207
्राय ा</w> 207
olog ical</w> 207
cel ebr 207
2 4</w> 206
ह टे 206
A n</w> 206
जु नार 206
bac k 206
जें ना 206
1 4</w> 205
ब न्द 205
न ङा</w> 205
n ec 205
l im 205
t y</w> 205
ड ा 205
ज ौ</w> 205
th ers</w> 205
था नायनि</w> 205
बा न 205
बे ं 205
दा म 205
रा हा</w> 205
मु ग 205
pro t 205
त ्रा 204
फ ारि</w> 204
r i</w> 204
क ्र 204
A j 204
ग र</w> 204
il ity</w> 204
एख े</w> 204
ब ृ 203
K ar 203
ख ्रा 203
M ugh 203
f low 203
इ न</w> 203
p at 203
re .	 203
gr ap 203
oo k</w> 203
राज थावनि</w> 203
थे रा 203
larg est</w> 203
क ्रि 202
ज ै 202
g n 202
J ai 202
ro ad</w> 202
नि बो</w> 202
kno w</w> 202
दाब से</w> 202
द ्र 201
गो ग्ल 201
en ing</w> 201
मु म 201
फि थाइ 201
गोर ा</w> 201
do es</w> 201
बेरामि या</w> 201
pers on</w> 201
centr e</w> 201
य ाया</w> 200
ख था 200
थ र 200
इ ल 200
5 0 200
खा नि</w> 200
or ig 200
si ble</w> 200
hist ory</w> 200
Mumb ai</w> 200
On e</w> 200
uni que</w> 200
4 0</w> 199
p i 199
अ ज 199
हा र</w> 199
id ence</w> 199
लाय ो।</w> 199
महर ाव</w> 199
tour s</w> 199
cond ition 199
exerc is 199
pilgr im 199
ह ौ 198
v es</w> 198
T aj</w> 198
P e 198
ना जा 198
मोन गोन।</w> 198
ic k</w> 198
हो गोन।</w> 198
हाय ो,</w> 198
सु बु 198
गोसो - 198
mar k 198
जायगाय ा</w> 198
रों गौ 198
pal ace</w> 198
निफ्राय नो</w> 198
a h</w> 197
f ri 197
नाय निफ्राय</w> 197
or i 197
थाय ो</w> 197
न् ट</w> 197
मु लाम 197
ap pro 197
गोनां थि 197
थां नो</w> 197
contro l</w> 197
ब नद 196
r af 196
t ly</w> 196
ar d</w> 196
us h 196
no w 196
खो र</w> 196
पु रनि</w> 196
anc tu 196
cl im 196
sup pl 196
ग ला 195
ग ्रे 195
हाय ा</w> 195
दे र</w> 195
mil li 195
Prad esh 195
म ख 194
b ed</w> 194
w ild 194
m agn 194
p ri 194
अ न् 194
दा नि</w> 194
सं नाय</w> 194
ने व 194
Hind u</w> 194
स ना</w> 193
l ev 193
p ot 193
G ang 193
er ic 193
ar r 193
al ay 193
बे सा 193
is m 193
मि नि 193
ex p 193
लु थाय 193
igh ts</w> 193
क् ष 193
wat er 193
जर खा</w> 193
fol low 193
l evel 192
s um 192
f ur 192
f ound 192
गा हा 192
लि नि</w> 192
लाम ायाव</w> 192
दै मानि</w> 192
सान जा</w> 192
se a</w> 192
मै गं 192
me di 192
सासे या</w> 192
बाज ्रु 192
गोग्ल ै 192
आ जाव 191
o ,</w> 191
- खालाम 191
m en 191
on ce</w> 191
बे हाय</w> 191
ab or 191
सोम खोर</w> 191
ल ोर 190
K an 190
ग ्रि 190
आर ा 190
जो र</w> 190
मा ब्ला 190
reg ion</w> 190
फोरा बो</w> 190
नानै ,</w> 190
u str 189
c ell 189
A gr 189
f ish 189
उ फ 189
G od 189
घ ा 189
दं फा 189
ep h 189
tak ing</w> 189
epat itis</w> 189
स ु</w> 188
ब र</w> 188
t ain</w> 188
B r 188
er n 188
नाय फोरनि</w> 188
दा सिमबो</w> 188
res s</w> 188
दै मा 188
form ation</w> 188
ment al</w> 188
सर जाब 188
experi enc 188
wom en</w> 188
â€ ™ 188
believ ed</w> 188
h ap 187
g est 187
जा थाय 187
था ख 187
था जि 187
मोन फ्रोम</w> 187
फो साव 187
बो सोरनि</w> 187
sp ir 187
सालि याव</w> 187
countr y</w> 187
त् त 187
दब थाय 187
T our 186
at ure</w> 186
re duc 186
मोन थाम</w> 186
pl eas 186
मो दाय 186
पा न 186
टा इ 186
आरि मु</w> 186
रों मोनदां 186
द् ध 186
अनजि मानि</w> 186
world .	 186
बिबां नि</w> 186
ै यै</w> 185
e h 185
ज रा 185
p aint 185
U tt 185
जा ग्रा</w> 185
it .	 185
नि ,</w> 185
ec ts</w> 185
माय ारि</w> 185
ass oci 185
vari ety</w> 185
भु गि 185
festiv al</w> 185
थ ों 184
F ort</w> 184
lo v 184
मिथि जानाय</w> 184
Him alay 184
whol e</w> 184
आ ल 183
r out 183
c ould</w> 183
l y,</w> 183
ग ्ला 183
w ood 183
ड ़ 183
ए न् 183
मि न</w> 183
tr y</w> 183
के ल 183
खाथि याव</w> 183
ful ly</w> 183
सोमोनां थाव</w> 183
A I 182
l a</w> 182
ग ले 182
h on 182
गो बां 182
जाय ै</w> 182
am s</w> 182
di es</w> 182
बाय जो 182
ig n</w> 182
खो ला 182
se as 182
par ts</w> 182
साय ा</w> 182
बै फोर</w> 182
Mad hya</w> 182
again st</w> 182
आ ं 181
r ap 181
d er 181
क त 181
ख ृ 181
g ive</w> 181
p ow 181
di rec 181
spec ial</w> 181
Am eric 181
मुलु ग 181
i .	 180
m a</w> 180
मा दाव</w> 180
बे राय 180
मु म् 180
com p 180
सान नि</w> 180
टि का 180
fam il 180
ord er</w> 180
herit age</w> 180
s ame</w> 179
b en 179
जा थाव 179
गो म 179
गा नि</w> 179
दि ङा 179
फा व 179
बार ा</w> 179
राज थावनि 179
ish n 179
Rajas than</w> 179
canc er</w> 179
खैफो द 179
lev el</w> 179
आ गु 178
आ फा 178
न ङ 178
at i</w> 178
आर ोब 178
ic ally</w> 178
ac ross</w> 178
sp ort 178
उन दु 178
सावग ारि</w> 178
जिब ख्रि 178
आरोब ाव</w> 178
म ध् 177
e f</w> 177
s aid</w> 177
t ure</w> 177
ख ेर 177
f r 177
f t</w> 177
N ag 177
C on 177
in s 177
ati c</w> 177
या ,</w> 177
का न 177
सिन ।</w> 177
बाहागो आव</w> 177
pal ac 177
overn ment</w> 177
l ak 176
t est 176
ख र</w> 176
in al</w> 176
on .	 176
ro w</w> 176
नि जो 176
di et 176
com b 176
मे ग 176
sc en 176
Sou th</w> 176
du ce</w> 176
y our 175
t od 175
ए खु 175
ना व 175
it am 175
st ud 175
मु वा</w> 175
बो सोन 175
ag e.	 175
ep t</w> 175
fl u 175
bet ter</w> 175
गाब गोनां</w> 175
बादि यै</w> 175
histor ical</w> 175
मैखु न</w> 175
1 1 174
त ्रे 174
A d 174
l y.	 174
m ov 174
B ang 174
सा ग्लोब 174
बि ल 174
सो नार 174
ation s.	 174
tion ,</w> 174
peri od</w> 174
enti al</w> 174
फाय ो।</w> 174
month s</w> 174
ब ौ 173
u ro 173
j ar 173
G re 173
ला नानै</w> 173
बि था 173
per f 173
हि न्द 173
ast e</w> 173
nat ure</w> 173
ho w</w> 173
रैखा थि</w> 173
hous es</w> 173
नेव सि 173
c at 172
ग ्र 172
C om 172
it ud 172
मोन ो</w> 172
ed uc 172
sp r 172
कि लʼ 172
oc cur 172
lif e.	 172
Mugh al</w> 172
AI D 172
आ बहा 171
u b 171
n ear 171
ए से 171
m id 171
हा दाब 171
न् त 171
गु वार 171
sh ow 171
लो गो</w> 171
नांग ौ 171
नै थि</w> 171
थाखाय ,</w> 171
बेसे न 171
खाम फा 171
i p</w> 170
o ther 170
p ed</w> 170
अ ब 170
गो मा 170
al a</w> 170
गा इ 170
बे वहाय</w> 170
जाय ाव</w> 170
ap pl 170
li es</w> 170
भार त</w> 170
महर नि</w> 170
गिरि नि</w> 170
pr ac 170
खुदि या</w> 170
हिमा ल 170
magn ific 170
s we 169
m y 169
ी नि</w> 169
p ain 169
उ दां</w> 169
S it 169
न् त</w> 169
जौ खोन 169
to o</w> 169
गोब्रा ब 169
vill age</w> 169
carv ed</w> 169
t ro 168
E x 168
ना - 168
था नाय,</w> 168
रा नि</w> 168
ti l</w> 168
us h</w> 168
सम फ 168
infec tion</w> 168
cult ure</w> 168
Del hi</w> 168
beaut y</w> 168
स आ</w> 167
u st 167
R am 167
हा इ 167
ag e,</w> 167
राज स 167
pre gn 167
हादोर नि</w> 167
आद ब 167
veget abl 167
distric t</w> 167
ब ्रि 166
ब र् 166
d y 166
H ill</w> 166
उ न्दु 166
ट ा</w> 166
ec h 166
हाय ै</w> 166
et c 166
ति स</w> 166
pati ents</w> 166
राव बो</w> 166
फ्रा म</w> 166
आ खा 165
e e</w> 165
i es.	 165
c ir 165
प ्ले 165
al i</w> 165
ent ly</w> 165
be ach</w> 165
नु थाय</w> 165
aj i</w> 165
ष् ण 165
hel d</w> 165
ब् लि 165
dru g 165
द म 164
r ight</w> 164
d ed 164
s pl 164
h or 164
बा थ 164
सा हा 164
ic s</w> 164
थाय जों</w> 164
pro bl 164
मे गन 164
हाद रनि</w> 164
her e.	 164
ord ing</w> 164
cr af 164
bab y</w> 164
ban ks</w> 164
मुसु खा 164
हरखा ब</w> 164
roy al</w> 164
advent ure</w> 164
spre ad</w> 164
1 00</w> 163
e at</w> 163
d oc 163
c ity.	 163
ग ं</w> 163
ग वा 163
प ्राय</w> 163
ए से</w> 163
m s</w> 163
ट नि</w> 163
P er 163
थाय ।</w> 163
ad ing</w> 163
os p 163
खालाम ो</w> 163
दै मा</w> 163
हे पा 163
मन्दि रा</w> 163
pres ent</w> 163
diseas es</w> 163
hill s</w> 163
उना व,</w> 163
k a</w> 162
ं ,</w> 162
ar s</w> 162
हाग ौ,</w> 162
गोजा म 162
मानसि फोरा</w> 162
ste m</w> 162
दाजाब देर 162
relig ious</w> 162
स ाव</w> 161
म ी 161
c ities</w> 161
s )</w> 161
w est</w> 161
D uring</w> 161
S ik 161
F rom</w> 161
th ir 161
जा नायखौ</w> 161
ar ti 161
गा न</w> 161
लाय नाय</w> 161
op en</w> 161
bu t 161
sur v 161
hour s</w> 161
स जों</w> 160
द ्रा 160
y oun 160
s ite</w> 160
h ug 160
w estern</w> 160
L ak 160
ना ङ 160
in n 160
नाय फोर</w> 160
खा नाय</w> 160
as c 160
ing s,</w> 160
खे व 160
सोमोन दै</w> 160
of f</w> 160
countr y.	 160
diff ic 160
फ्ल े 160
1 6</w> 159
ब ो।</w> 159
b or 159
इ से 159
S ing 159
en n 159
हा उ 159
or a</w> 159
is ed</w> 159
गु न 159
ir e</w> 159
de ath 159
सुबुं फोरनि</w> 159
emb er</w> 159
requ i 159
mod ern</w> 159
1 1</w> 158
स न् 158
s ac 158
ग ले</w> 158
h a</w> 158
N orth</w> 158
B ut</w> 158
नाय फोरखौ</w> 158
सि ं</w> 158
am id 158
बो नाय</w> 158
हाग ्रा</w> 158
cl in 158
खर ंनि</w> 158
col our 158
tour ism</w> 158
ग्ल ाय 158
जों बो</w> 158
जिउ नि</w> 158
Maharashtr a</w> 158
थाथा नि 158
हिन्द ु</w> 158
ग ् 157
ज नि</w> 157
3 0 157
f ast</w> 157
ओ ंखा 157
श ्र 157
at a</w> 157
बे द 157
बे फोर 157
हो ग्रा</w> 157
ch ur 157
ab ove</w> 157
नो जोर 157
खु लि</w> 157
साव स्रि</w> 157
are as</w> 157
An d</w> 157
Pal ace</w> 157
थुलु ंगा 157
गाहा इ</w> 157
स - 156
न थि</w> 156
l y 156
M ost</w> 156
D i 156
ट ार 156
B e 156
बे रे 156
di agn 156
रि या</w> 156
खर ं</w> 156
end ed</w> 156
inf lu 156
dr in 156
गोमो थाव</w> 156
Gu jar 156
conn ected</w> 156
1 8</w> 155
r ail 155
M any</w> 155
ए सि 155
C ol 155
बा स</w> 155
es s.	 155
रा ज</w> 155
न् ध 155
ch ol 155
लाय ा 155
fac il 155
ight .	 155
sel f 155
स्त ्र 155
समा जा 155
हादर ारि</w> 155
गुबै यै</w> 155
magnific ent</w> 155
ded icated</w> 155
a - 154
a un 154
क न 154
m emor 154
or ies</w> 154
st u 154
रा य</w> 154
सो ब 154
el eph 154
un til</w> 154
ed ing</w> 154
गोर ोन 154
oc cu 154
tak es</w> 154
mil k</w> 154
popul ation</w> 154
साबना हामना</w> 154
ल खौ</w> 153
द नद 153
y s</w> 153
अ राय 153
थि - 153
ay ing</w> 153
सालि या</w> 153
rest aur 153
pur ,</w> 153
cult ural</w> 153
e ther</w> 152
t al 152
ख ’ 152
) ।</w> 152
h app 152
E m 152
जा फुं 152
जि उ</w> 152
em o 152
ent .	 152
ing s.	 152
oun t</w> 152
se en</w> 152
tim e.	 152
tri p</w> 152
off er</w> 152
लास ै</w> 152
nec ess 152
A ur 151
h om 151
b ur 151
G h 151
ना ङा 151
an y 151
बा द</w> 151
ent al</w> 151
ग्रा फोरा</w> 151
ach al</w> 151
pu t</w> 151
prov ide</w> 151
cond ition</w> 151
द ारि 150
क ले 150
t s,</w> 150
O n</w> 150
in divid 150
al s,</w> 150
बु र 150
हो यो,</w> 150
ारि यै</w> 150
op er 150
बार ा 150
sy stem</w> 150
हाजो नि</w> 150
bec ame</w> 150
peri od 150
ey mo 150
vir us</w> 150
बिसोर खौ</w> 150
जोन ोम 150
साजाय नाय</w> 150
increas e</w> 150
Del hi 150
mak es</w> 150
खोन् दो 150
build ing</w> 150
Aur ang 150
द ौ 149
w ond 149
ना ,</w> 149
सि ंनि</w> 149
न् स</w> 149
port un 149
सुबुं नि</w> 149
me ans</w> 149
थै नायनि</w> 149
pu b 149
सोना बारि</w> 149
architect ural</w> 149
Mumb ai 149
progr amm 149
your self</w> 149
hug e</w> 149
फ बनाय</w> 148
i es,</w> 148
i ther</w> 148
t en 148
इ ं 148
m an</w> 148
च े 148
फोर मान</w> 148
बे फोरखौ</w> 148
थाय फोरा</w> 148
ag ed</w> 148
दावबाय नो</w> 148
19 8 148
निख्रु इ 148
vi ew 148
â€™ s</w> 148
diagn os 148
र खौ</w> 147
c ame</w> 147
A b 147
l ake</w> 147
s ince</w> 147
ध ु 147
ं - 147
th ,</w> 147
बि दै 147
हो नानै</w> 147
ad y</w> 147
दु गै 147
रं जानो</w> 147
po int</w> 147
मोनसे ।</w> 147
tu res 147
आनजा द</w> 147
गैया ।</w> 147
clo se</w> 147
sign ific 147
स फोरा</w> 146
d am 146
ो ब्ला</w> 146
o red</w> 146
R es 146
re ach</w> 146
दा ला 146
et ting</w> 146
op portun 146
ai l</w> 146
sy st 146
sc ul 146
sty le</w> 146
sle ep 146
नुजा थि 146
मुग ल</w> 146
आ जौ 145
स . 145
I s 145
al th</w> 145
बाय ,</w> 145
खालाम नायनि</w> 145
we ight</w> 145
मिथि ंगा 145
हाग्रा मा 145
जायगाय ारि</w> 145
फ ारा 144
s ett 144
w ind 144
R iv 144
p ul 144
उ त्त 144
th .	 144
ना ङै</w> 144
an n 144
जा ना</w> 144
re comm 144
ला मानि</w> 144
es s,</w> 144
से याव</w> 144
स् क 144
रो दा 144
माव फुं 144
ind ustr 144
car ri 144
enc y</w> 144
bec om 144
दावबायारि फोरा</w> 144
निख्रु य</w> 144
ho t</w> 144
Par k</w> 144
बेसे न</w> 144
pic tures 144
बैसो नि</w> 144
s ev 143
ज ् 143
H ar 143
उ ननि</w> 143
अ म 143
था ग्रा</w> 143
थाय ै</w> 143
हो जायो।</w> 143
गु सु</w> 143
em ents</w> 143
per form 143
माव नो</w> 143
all y,</w> 143
aj a</w> 143
wor k 143
he ad</w> 143
ब्ला बो,</w> 143
ever y 143
जोब था</w> 143
खे र</w> 143
गोख्र ों 143
गनाय थि 143
food s</w> 143
मध् य</w> 143
2 4 142
r ac 142
i m</w> 142
न जों</w> 142
व ाया</w> 142
o h 142
o l</w> 142
th ous 142
खा थि</w> 142
ch ed</w> 142
wat ers</w> 142
मन्दि रनि</w> 142
prov ides</w> 142
थाइ नि</w> 142
अनगाय ैबो</w> 142
sug ar</w> 142
ben ef 142
1 00 141
आ फ 141
l ast</w> 141
s id 141
ग ै</w> 141
t om 141
b er</w> 141
ए र 141
m i 141
m ents</w> 141
श ् 141
जा गोन</w> 141
al ways</w> 141
नि याव</w> 141
el ing</w> 141
मु खु 141
बै सो</w> 141
ast ern</w> 141
गोनां ,</w> 141
गोनां थार</w> 141
रु गु 141
pre c 141
थां नाय</w> 141
fam ily</w> 141
सालि नि</w> 141
ment .	 141
land s</w> 141
गोन ,</w> 141
जगाय ो।</w> 141
dist ance</w> 141
pictures que</w> 141
आ स 140
e x</w> 140
d one</w> 140
i ed</w> 140
s am 140
h epatitis</w> 140
b ro 140
D estin 140
जा दोंमोन,</w> 140
al most</w> 140
बे ग 140
मो दा 140
फि नजा 140
tem per 140
सोमोन दो</w> 140
dec or 140
मोना बि 140
थेरा पि 140
निख्रुइ बो</w> 140
क सि 139
o grap 139
f ar</w> 139
S u 139
B i 139
ar .	 139
हा बा</w> 139
सा - 139
st ation</w> 139
जि नि</w> 139
गु दि</w> 139
ul arly</w> 139
से नि</w> 139
ंग ार 139
In ter 139
गाव खौनो</w> 139
पु रा</w> 139
cas e</w> 139
सोमोन् दो</w> 139
सुबु ङा</w> 139
milli on</w> 139
pub lic</w> 139
2 5 138
आ खि 138
स ल 138
द ङ</w> 138
v itam 138
i al 138
h ,</w> 138
g old 138
ना रि 138
जा सि 138
er ous</w> 138
सा न् 138
थि ,</w> 138
ic raf 138
फा लांग 138
फि न</w> 138
दै बाज्रु 138
गोर बो 138
le ar 138
tre k 138
फै यो।</w> 138
बाहाय नाय</w> 138
sc ap 138
rel ax 138
cu is 138
nam ed</w> 138
Tr av 138
एखु था</w> 138
e um 137
e 's</w> 137
A c 137
उ ल 137
6 0 137
re ach 137
बा ख 137
su cc 137
माय थायाव</w> 137
हि नजा 137
anc e.	 137
बोन ो</w> 137
coll ection</w> 137
fres h</w> 137
स मान 136
r ain 136
d em 136
क म 136
न फोर</w> 136
s n 136
ङ ो,</w> 136
S ur 136
W ith</w> 136
T ake</w> 136
ना थ</w> 136
ar a</w> 136
on - 136
st on 136
बे खेव 136
मु लि 136
नो जोर</w> 136
qu ite</w> 136
iti es.	 136
eas t</w> 136
end ing</w> 136
iz ation</w> 136
prov id 136
sk in</w> 136
थाखो नि</w> 136
bas ed</w> 136
mak ing</w> 136
फालांगि यारि</w> 136
contin u 136
फालांग ि</w> 136
ब ल 135
r id 135
e a</w> 135
d ail 135
न ।</w> 135
n orth</w> 135
s ing 135
प ि</w> 135
m en</w> 135
सि रि 135
ati v 135
खो ख्ल 135
res ult</w> 135
sh ip</w> 135
ear ch</w> 135
ति क</w> 135
टि स</w> 135
tion s.	 135
फै नाय</w> 135
pr im 135
hol d</w> 135
hol y</w> 135
attrac tions</w> 135
fi el 135
hal f</w> 135
लाफा नानै</w> 135
देहाय ारि</w> 135
mount ain 135
d .	 134
i a,</w> 134
c row 134
क र् 134
l ine</w> 134
o tic</w> 134
H ot 134
m e</w> 134
ट ्रे 134
and s</w> 134
ation s,</w> 134
रे ल 134
loo k</w> 134
te a</w> 134
infec ted</w> 134
hi m</w> 134
can not</w> 134
स ों 133
l ight</w> 133
t or 133
m ot 133
C entr 133
W or 133
T o</w> 133
in ,</w> 133
फोर मान 133
en ed</w> 133
बा गान 133
या वनो</w> 133
खो न</w> 133
जौ थायनि</w> 133
बेरा मा</w> 133
गोजा न</w> 133
ion s</w> 133
caus ed</w> 133
stat e.	 133
ब् याम 133
बोथोर नि</w> 133
rang e</w> 133
द न्द 132
s anctu 132
ग सा 132
b al 132
g e 132
m er 132
था नि</w> 132
बार स्लाय 132
hav ing</w> 132
खर ’ 132
क् सि 132
साव स्रि 132
Tem ple,</w> 132
pers on 132
बेनि खायनो</w> 132
गोदो नि</w> 132
norm al</w> 132
मेल ेरि 132
य ैनो</w> 131
a is 131
r ishn 131
A y 131
A D 131
प ्रि 131
h osp 131
w id 131
f av 131
S ar 131
W est</w> 131
G ur 131
G and 131
in side</w> 131
in formation</w> 131
at .	 131
मोन थि 131
दा नाय</w> 131
थि जों</w> 131
ic ate</w> 131
ch ing</w> 131
ारि नि</w> 131
देर हा 131
he ad 131
समाय नायै</w> 131
mon th</w> 131
Mah al</w> 131
to p</w> 131
नङा ,</w> 131
exc ell 131
समा न</w> 131
exerc ise</w> 131
ओनसो ल</w> 131
sac red</w> 131
scul pt 131
c aves</w> 130
A si 130
n ur 130
m ort 130
उ रि 130
j our 130
P ur 130
फोर सिम</w> 130
at e,</w> 130
मु ं</w> 130
pro g 130
anc es</w> 130
St ate</w> 130
caus es</w> 130
med ical</w> 130
ful l</w> 130
hot el</w> 130
बाला हा 130
गोसोबो गथाब 130
ron ic</w> 130
मोननै बो</w> 130
ide al</w> 130
trib al</w> 130
न - 129
न ो।</w> 129
s ch 129
f at</w> 129
f lo 129
E uro 129
in ated</w> 129
था फा 129
थि फोर</w> 129
ac ute</w> 129
फो साब 129
या व 129
सोर गो 129
लो ब 129
he av 129
अन थाय</w> 129
गोन ो 129
rem ains</w> 129
trav el</w> 129
tur n</w> 129
beach es</w> 129
राजस्था ननि</w> 129
निजो म</w> 129
Bang al 129
म ारा 128
y 's</w> 128
न फोरनि</w> 128
t s.	 128
b ath 128
f all</w> 128
f requ 128
g od 128
उ द 128
I m 128
in e.	 128
फोर हा</w> 128
गो जा</w> 128
it ing</w> 128
is su 128
गु सु 128
di d</w> 128
un g</w> 128
गे देर 128
ne w 128
pres ent 128
min d</w> 128
land scap 128
sec ond</w> 128
आला दा</w> 128
grou p</w> 128
establ ished</w> 128
a b</w> 127
e ating</w> 127
l l 127
l ater</w> 127
ना ।</w> 127
जा नि</w> 127
थि लि</w> 127
et ,</w> 127
res id 127
le ft</w> 127
ता र</w> 127
थार ।</w> 127
rec e 127
जर खायै</w> 127
ओं थि 127
complet e</w> 127
Buddh ist</w> 127
hum an</w> 127
आथिखा लाव</w> 127
consid ered</w> 127
perf ect</w> 127
amid st</w> 127
फ ब 126
य ै 126
क ्ल 126
ग ि</w> 126
b lo 126
o k 126
L oc 126
बि थिं 126
फा ं</w> 126
us ,</w> 126
im p 126
sh ip 126
com es</w> 126
सन े 126
bu s</w> 126
ill ed</w> 126
og n 126
फोरा व,</w> 126
दोन थुम 126
countr ies</w> 126
खाजा नि</w> 126
जाया ।</w> 126
HI V 126
chang e</w> 126
दिल्ल ी 126
cover ed</w> 126
AID S</w> 126
v er</w> 125
e ither</w> 125
h im 125
w orth</w> 125
V is 125
in tr 125
गो सा</w> 125
गो यै</w> 125
हा न् 125
or ,</w> 125
as .	 125
बु जि 125
मि लिय 125
pl an 125
pl es</w> 125
ap ur 125
pro f 125
le ad</w> 125
qu is 125
मान सि</w> 125
ill s</w> 125
सं फ्ल 125
खुं नाय</w> 125
हाग्रा नि</w> 125
फार से 125
मुवा फोर</w> 125
मोजां मोन 125
sou th</w> 125
गाहाय ाव</w> 125
हारिमु वारि</w> 125
खेब से</w> 125
Kashm ir 125
associ ated</w> 125
1 . 124
स ना 124
त ,</w> 124
s our 124
ख ं 124
ख ु</w> 124
ड ाय 124
ट ि</w> 124
al t 124
बि मा</w> 124
as e</w> 124
pl e.	 124
us ing</w> 124
de f 124
tour ist 124
co ast 124
ण् डि 124
गैय ि</w> 124
monum ents</w> 124
mos qu 124
फ ि</w> 123
ह ो।</w> 123
c ott 123
न ी 123
s oci 123
w ant</w> 123
f unc 123
G r 123
ाय ै</w> 123
रा म 123
ch es</w> 123
लि ं 123
us .	 123
ul ts</w> 123
ंग ्रा</w> 123
नों नो</w> 123
जु रा 123
ant a</w> 123
मन्दि र,</w> 123
आय ु 123
hand icraf 123
मेजे म 123
interest ing</w> 123
construc ted</w> 123
किलʼ मिटार</w> 123
ograp h 123
4 5</w> 122
आ न 122
य नि</w> 122
r ate</w> 122
w ide</w> 122
D r 122
ना इ 122
जा बो 122
बे ल</w> 122
बे खायनो</w> 122
नि नि</w> 122
थाय फोरखौ</w> 122
हाय ाव</w> 122
ex t</w> 122
कि मि 122
नोगोर ा</w> 122
fo re 122
loo king</w> 122
lik ely</w> 122
लामा जों</w> 122
bac ter 122
high est</w> 122
mount ain</w> 122
forest s</w> 122
ke ep</w> 122
phys ical</w> 122
Agr a</w> 122
उफ ेरा</w> 122
Sit uated</w> 122
1 7</w> 121
4 0 121
स फ 121
स ंख 121
a w</w> 121
d ow 121
K rishn 121
l ive</w> 121
D ev 121
ए म</w> 121
S p 121
Q u 121
मा खौ</w> 121
ent s.	 121
sp ot</w> 121
का नि</w> 121
ख्र ि</w> 121
जों ,</w> 121
mus eum</w> 121
गोख्र ै</w> 121
bod y.	 121
बाव ै 121
मनदि र</w> 121
serv ices</w> 121
syst em 121
c ul 120
k s,</w> 120
h un 120
w ild</w> 120
m orn 120
j e 120
आर ् 120
or .	 120
मा बोर 120
मि उ 120
लि या</w> 120
id s</w> 120
ex quis 120
ता ज</w> 120
ne y</w> 120
नोगोर ाव</w> 120
min ist 120
mo ther 120
tran sm 120
सोमोन् दै</w> 120
inv ol 120
hou se</w> 120
आबु ङै</w> 120
य ु 119
u ,</w> 119
8 0</w> 119
7 0</w> 119
er t</w> 119
en erg 119
al s.	 119
st ay</w> 119
ur b 119
di ab 119
लाम ाया</w> 119
जौ गा</w> 119
sp ot 119
बाहाय नो</w> 119
प्र े 119
मानसि या</w> 119
az a 119
develop ed</w> 119
इउ र 119
मेले म 119
valle y</w> 119
press ure</w> 119
youn g</w> 119
1 3</w> 118
ह ेर 118
d ,</w> 118
m ou 118
थि फोरखौ</w> 118
ic ation</w> 118
सो द्र 118
id em 118
ag ar</w> 118
खो मा 118
खालाम दोंमोन।</w> 118
खालाम नानै</w> 118
दावबाय है 118
सन नि</w> 118
ता इ 118
si x</w> 118
Ch in 118
bre ast 118
sc i 118
माइ थायनि</w> 118
year s.	 118
Keral a.	 118
high er</w> 118
फोथाय नाय</w> 118
fi ed</w> 118
ven tion</w> 118
खाला म</w> 118
char ac 118
न ं 117
n ar 117
t ot 117
व नाय</w> 117
g ir 117
in j 117
गो बाव</w> 117
on om 117
बि खानथि 117
ic ,</w> 117
ti g 117
बो गथाब 117
गे हे 117
सु र 117
sh ap 117
सान फोरनि</w> 117
gr ad 117
हादोर सानि</w> 117
thr ough 117
if ic</w> 117
भि ता 117
attrac tion</w> 117
fru it</w> 117
बेंख न 117
cell s</w> 117
थाख ो</w> 117
थाजि म</w> 117
sev ere</w> 117
. सि 116
A ir 116
o x 116
in e,</w> 116
.	 9 116
गा - 116
सो लो 116
मो खा 116
सम ् 116
या र</w> 116
खो ना 116
बां सिन 116
नों हा</w> 116
लां नो</w> 116
ure d</w> 116
low er</w> 116
गेजेर ारि</w> 116
फोरा नो</w> 116
फिन नाय</w> 116
सोना ब 116
app ear 116
trav el 116
cer tain</w> 116
गुबुन - 116
resp on 116
hab it 116
wild life</w> 116
paint ings</w> 116
नाङा ।</w> 116
आ बुं 115
म द 115
l l</w> 115
M and 115
h il 115
b ar 115
o - 115
g all 115
N ew</w> 115
इ स 115
उ खु 115
भ ि</w> 115
.	 बियो</w> 115
ला ङो।</w> 115
मोन दि 115
नि स</w> 115
जि द 115
am p 115
ch arm 115
lo t</w> 115
im prov 115
res erv 115
दं मोन।</w> 115
गाव नो</w> 115
गिरि या</w> 115
पे ले 115
ment ,</w> 115
stand s</w> 115
therap y</w> 115
हौ वा 115
ern al</w> 115
राजस था 115
आ व,</w> 114
d re 114
d ance</w> 114
न फोरा</w> 114
A k 114
s en 114
S ah 114
en vir 114
न् स 114
dis pl 114
Keral a,</w> 114
बर फ 114
nutr ition</w> 114
Pl an</w> 114
माबोर ै</w> 114
स त्र 113
ि फ्राय</w> 113
v ac 113
i ef</w> 113
s mo 113
प र् 113
M on 113
' ,</w> 113
ज ्लाय 113
T am 113
बि खा 113
मा ,</w> 113
मु ंख 113
मु ङै</w> 113
गु न</w> 113
ch e 113
sh ort</w> 113
मे ं 113
दु खु 113
सार ा 113
tion al</w> 113
col d</w> 113
bo at</w> 113
po st 113
लैथो गाथोन 113
हाब नाय</w> 113
so on</w> 113
tran s 113
बिबा र</w> 113
हेफाजाब - 113
Kh aj 113
effec tive</w> 113
गोथ ौ</w> 113
ल ं 112
a ther</w> 112
क ,</w> 112
न खर</w> 112
s ed</w> 112
t an 112
f all 112
L ond 112
घ न 112
ना जाव 112
ar ies</w> 112
re li 112
re duce</w> 112
ला इ</w> 112
बा दा 112
हा थाय 112
हा थाव</w> 112
गा ल 112
ti es</w> 112
av er 112
sp ort</w> 112
खि रिमि 112
bre ak</w> 112
गोजोन थाव</w> 112
tow ards</w> 112
फ्रा म 112
wal k</w> 112
celebr ated</w> 112
बनद ’ 112
u v 111
v ol 111
l at 111
l ush</w> 111
इ सि 111
m other</w> 111
R an 111
G an 111
P an 111
in ts</w> 111
जा नांगौ।</w> 111
सि या</w> 111
मा ल 111
दा नाव</w> 111
नि क</w> 111
दि ,</w> 111
et s,</w> 111
दं फां 111
फि थाइ</w> 111
सान स्रि 111
le ast</w> 111
का न</w> 111
col or 111
रै खा</w> 111
enc e.	 111
mus cl 111
दोंमोन दि</w> 111
गथ’ फोरनि</w> 111
esh war</w> 111
olog y</w> 111
गामि यारि</w> 111
बांद ्राय 111
architect ure</w> 111
बोन ाय 111
Him achal</w> 111
खाला मो 111
health y</w> 111
ech n 111
समाजा रि</w> 111
खोख्ल ै 111
ह र</w> 110
v ic 110
e ful</w> 110
n ever</w> 110
g er 110
B har 110
th - 110
दा बो</w> 110
जाय ारि</w> 110
जाय फोर</w> 110
ac tion</w> 110
बो खार 110
ol s</w> 110
iv ed</w> 110
pro te 110
दै याव</w> 110
कि मि</w> 110
au gh 110
mo thers</w> 110
nat h</w> 110
खन से</w> 110
गेजे रा 110
मोसा नाय</w> 110
mal ari 110
सांग्रा ं</w> 110
He alth</w> 110
मुम बाय 110
बेसा द 110
आफ ्रि 110
dail y</w> 110
म ेर 109
a p</w> 109
A cc 109
t ill</w> 109
b al</w> 109
m ass 109
ना थ 109
बि थोन 109
बे फोरनि</w> 109
थि यारि</w> 109
pl ant 109
ad a</w> 109
ch ronic</w> 109
दो र</w> 109
स् टे 109
est im 109
गाय खेर 109
qu i 109
का र</w> 109
थो र</w> 109
बै नो</w> 109
अन थाय 109
ther e 109
लैथो नि</w> 109
eff ect</w> 109
भु म 109
develop ment</w> 109
होबथा नो</w> 109
जाहो न</w> 109
Af ric 109
हें था 109
Rajasth an,</w> 109
surround ed</w> 109
itud e</w> 109
9 0</w> 108
a x</w> 108
ग ारि 108
R eg 108
in ating</w> 108
.	 3 108
al le 108
सि स</w> 108
जो म 108
गा थोन</w> 108
बे ल 108
बे ला 108
लि याव</w> 108
su n</w> 108
per or</w> 108
oc ial</w> 108
de fin 108
de ep</w> 108
ous ly</w> 108
जागाय जेन 108
गनाय थि</w> 108
liv ing</w> 108
day s.	 108
destin ation</w> 108
सोदो ब 108
expl ore</w> 108
आ बो</w> 107
र ै</w> 107
ब ल</w> 107
ा वनो</w> 107
म नि 107
A h 107
l s</w> 107
s .</w> 107
ड ़</w> 107
x im 107
L ake</w> 107
j ew 107
B ab 107
E ast</w> 107
ar ter 107
गो ग 107
हा थाव 107
मोन ब्रै</w> 107
थि फोरनि</w> 107
ent s,</w> 107
iv ers 107
खो ब 107
res ist 107
मे दि 107
gr ound</w> 107
क् स 107
reg ular</w> 107
बुहु माव</w> 107
मुवा फोरखौ</w> 107
trad ition 107
ens ive</w> 107
फराय सालि 107
En gl 107
ate way</w> 107
los s</w> 107
आजौ समफ 107
हिनजा व 107
excell ent</w> 107
through out</w> 107
envir on 107
् र</w> 106
k ing 106
ु रे 106
n ight</w> 106
l ac 106
t ou 106
ज र् 106
H y 106
D h 106
इ न्द 106
अ खा 106
अ ख्रा 106
B u 106
7 0 106
in .	 106
गो लाव 106
सा ल 106
बि गिया 106
रा ंखा 106
बु मिन 106
sh o 106
ep idem 106
anc e,</w> 106
au th 106
cont act</w> 106
बोसोर फ्रोमबो</w> 106
serv ed</w> 106
बिबार नि</w> 106
बिमा - 106
आरिमु नि</w> 106
vacc ine</w> 106
effec ts</w> 106
प्रदेश नि</w> 106
dev ot 106
दंफा ंनि</w> 106
Trav el</w> 106
आ ज 105
य ै,</w> 105
द ्रे 105
न दि 105
k il 105
k s.	 105
ो मनि</w> 105
s ing</w> 105
b oo 105
f il 105
f ever</w> 105
B eng 105
था बैनो</w> 105
re port 105
बे नो</w> 105
जि ंगा 105
am .	 105
गु दुं 105
बाय नो</w> 105
per cent</w> 105
नोगोर खौ</w> 105
pr is 105
18 6 105
co con 105
माखा से 105
देहा फाहाम 105
दोन नाय</w> 105
hy dr 105
compl ex</w> 105
खमाय नो</w> 105
बोर ि 105
गोथ ौ 105
2 1</w> 104
ल ण्ड 104
i or</w> 104
h and</w> 104
ए क 104
m aint 104
G ard 104
गो दा 104
at e.	 104
मा ला 104
बे जे 104
नि य 104
as h</w> 104
am a</w> 104
ec onom 104
दों ,</w> 104
et .	 104
या व,</w> 104
होन नानै</w> 104
सान थ 104
qu ality</w> 104
फु र 104
str ong</w> 104
मुं खौ</w> 104
ग्रा नि</w> 104
Sh im 104
comm od 104
sy n 104
Al though</w> 104
diseas e.	 104
out break 104
Jai pur</w> 104
Utt ar 104
stud y</w> 104
दनद र 104
2 00</w> 103
आ सा 103
ल जि 103
c e 103
c es</w> 103
c oo 103
n um 103
M in 103
जा र 103
फोर खौबो</w> 103
बि स 103
ur y</w> 103
स् त</w> 103
le t</w> 103
साब सिन 103
राज खुं 103
si ons</w> 103
fe et</w> 103
मै देर 103
खौ रां 103
फ्र े 103
गै या</w> 103
ru n</w> 103
fo rest</w> 103
mar ble</w> 103
आइ . 103
सोहोर नि</w> 103
hou se 103
shop ping</w> 103
partic ularly</w> 103
राइ जो 103
drug s</w> 103
बेफोर ो</w> 103
c le</w> 102
क ि</w> 102
b le 102
o y 102
f asc 102
D e 102
ए स 102
ट ु 102
P o 102
I ts</w> 102
in iti 102
ar h</w> 102
गो थाव</w> 102
it ,</w> 102
it ive</w> 102
मोन दा 102
सा फोरनि</w> 102
सा नाव</w> 102
ro oms</w> 102
मु ंनि</w> 102
गि यान</w> 102
्ल ा</w> 102
स् कु 102
ता मि 102
जायगा फोरनि</w> 102
rel ated</w> 102
St ation</w> 102
दावबायारि फोरखौ</w> 102
सिगा ं 102
देहा खौ</w> 102
jo y</w> 102
ris s 102
मेजे म</w> 102
doc t 102
Sing h</w> 102
आ क 101
e en</w> 101
n ext</w> 101
ग थ</w> 101
ज थाय</w> 101
ज ्ला 101
f re 101
f ron 101
V i 101
I C 101
an di 101
ar k</w> 101
गो जों</w> 101
ic ial</w> 101
फो थार 101
am bo 101
ab ly</w> 101
सोर खार 101
est ic</w> 101
जौ थाय</w> 101
ay ed</w> 101
dis ord 101
हारि मु</w> 101
pos sible</w> 101
dr ive</w> 101
des cri 101
Ar ab 101
hot els</w> 101
inv est 101
हें थायै</w> 101
fru its</w> 101
Go a</w> 101
gar h</w> 101
इनजु र 101
मुम् बाइ 101
hosp it 101
1 , 100
1 9</w> 100
r in 100
d le</w> 100
c y 100
c ity,</w> 100
क ृ 100
s qu 100
t echn 100
3 5</w> 100
- गोनां</w> 100
f ine</w> 100
p sy 100
z e</w> 100
O riss 100
ना रे 100
था सारि</w> 100
गो थार 100
नाय सं 100
it ted</w> 100
सि बा 100
सम ा</w> 100
ex pos 100
दावबाय नाया</w> 100
ep end 100
par k</w> 100
जायगा खौ</w> 100
हादोर सा</w> 100
Mah ab 100
सरासनस ्रा 100
ष् टि 100
गाब नि</w> 100
दिन्थि फुं 100
bir th</w> 100
centr al</w> 100
लोम जानाय</w> 100
देहाय ाव</w> 100
एल ार 100
आगो ल</w> 100
well - 100
गोसो- बाय 100
एन् टि 100
हेपा टाइ 100
blo od 100
ल ार 99
r un 99
e es</w> 99
. . 99
व ारि 99
f alls</w> 99
ध ि 99
ए ंगार 99
m ul 99
p ast</w> 99
उ बार 99
C or 99
श ा 99
बे लायाव</w> 99
जाय हा</w> 99
्रा इ 99
न् टा 99
di gest 99
av oid</w> 99
रि नि</w> 99
सम ्रा 99
सु बि 99
क् स</w> 99
ind epend 99
loc k</w> 99
ris e</w> 99
बिफा ं 99
जर ’ 99
आग ु</w> 99
खाव से</w> 99
develop ing</w> 99
लास ैयै</w> 99
सोमोन् दो 99
cour se</w> 99
हाया ।</w> 99
Kol hap 99
As s 99
fur ther</w> 99
सने ल</w> 99
2 6 98
आ नो</w> 98
आ सार 98
आ गान 98
ब राय 98
i a.	 98
t op 98
t aste</w> 98
प लि 98
च ल</w> 98
C ent 98
ट ,</w> 98
E v 98
8 0 98
फोर नाव</w> 98
en e</w> 98
खा म् 98
सा फोरा</w> 98
ur ah 98
न् दा 98
हो दों।</w> 98
मु गानि</w> 98
से न 98
con tri 98
दै जों</w> 98
होन ाया</w> 98
ort s</w> 98
नु सार 98
ter n 98
पु राव</w> 98
्राय ाव</w> 98
ight ,</w> 98
सिगा ङाव</w> 98
day .	 98
dist inc 98
Shiv aji</w> 98
रायजो नि</w> 98
gard en</w> 98
need s</w> 98
anim als</w> 98
जुना र</w> 98
vegetabl es</w> 98
ल फोर</w> 97
e ed</w> 97
n ic</w> 97
n on- 97
ग ारि</w> 97
ग सं 97
w alls</w> 97
ड ु 97
D ec 97
जा होनो</w> 97
.	 नों</w> 97
ar y.	 97
गो बाव 97
हा ं</w> 97
मोन नो 97
सा ,</w> 97
नि नो</w> 97
बु थार 97
जे न</w> 97
खालाम ना</w> 97
स् नि</w> 97
बां गाल 97
लु जानाय</w> 97
ear li 97
साय ा 97
dis c 97
col on 97
थै नि</w> 97
fac t</w> 97
बेराम खौ</w> 97
cu los 97
होब था</w> 97
spec ies</w> 97
नेर सोन</w> 97
ey es</w> 97
vir al</w> 97
visit ed</w> 97
visit ing</w> 97
trav ell 97
केन सार</w> 97
ओं थिया</w> 97
ju ice</w> 97
मेले म</w> 97
ber culos 97
फोलेर नि</w> 97
prev ent</w> 97
Pradesh ,</w> 97
bor n</w> 97
occu r</w> 97
necess ary</w> 97
Riv er</w> 97
becom es</w> 97
gold en</w> 97
diab et 97
Khaj urah 97
ह ै</w> 96
ल ारि 96
ल ्ला 96
e at 96
l ung 96
s us 96
t og 96
f ree</w> 96
g overnment</w> 96
N or 96
p ast 96
5 00</w> 96
W e</w> 96
O r 96
औ रं 96
th re 96
an s,</w> 96
er ful</w> 96
नाय ारि</w> 96
it y 96
ला नायनि</w> 96
हा सु 96
or s.	 96
गा न्ध 96
थि फोरा</w> 96
ch ec 96
गि र् 96
id enti 96
जे ब्लाबो</w> 96
ex ist 96
दो हो 96
od h 96
खाय ाव</w> 96
oc cas 96
fe eding</w> 96
comm erc 96
फारि यै</w> 96
coun tri 96
mus ic</w> 96
बाहागो नि</w> 96
फुं खा 96
year .	 96
devel op</w> 96
मोजां ।</w> 96
lit er 96
बिलो नि</w> 96
ष्ट ्र 96
Ko ch 96
pi ec 96
माब्ला बा</w> 96
बिल ो</w> 96
pregn anc 96
y et</w> 95
r are</w> 95
e th 95
i um</w> 95
s ure</w> 95
w ood</w> 95
ज ल 95
3 00</w> 95
H on 95
m un 95
B ar 95
नाय दिं 95
it self</w> 95
en ough</w> 95
बा बो</w> 95
सि - 95
बि दै</w> 95
गा मि</w> 95
बे गर 95
थि ।</w> 95
मि टार 95
lo ve</w> 95
लाय ो</w> 95
od e</w> 95
li fe 95
le ading</w> 95
बार हा 95
he ight</w> 95
Ch ur 95
Ch ild 95
enc e,</w> 95
लोगो से 95
जौगा नाय</w> 95
केरे ला</w> 95
केरे लायाव</w> 95
increas ed</w> 95
बिबार बारि 95
Shiv a</w> 95
समाव नो</w> 95
abor atory</w> 95
facil ities</w> 95
Euro pe 95
सोद्र ो 95
आ खाय</w> 94
् लि 94
a em 94
v ast</w> 94
d ess</w> 94
c op 94
s lo 94
s ocial</w> 94
h u 94
ज ब 94
H er 94
D o</w> 94
N ov 94
p ain</w> 94
it s,</w> 94
ला फायो।</w> 94
बा दाय 94
बा गै</w> 94
दा ननि</w> 94
गु जरा 94
ul l 94
या नो</w> 94
खो ख 94
sh all</w> 94
लु दोंमोन।</w> 94
रो जा 94
ut t 94
tre at</w> 94
साव राय 94
min ut 94
मानसि नि</w> 94
बुहु म</w> 94
फिन नो</w> 94
stat es</w> 94
जाया खै 94
add ed</w> 94
जायो दि</w> 94
बय निख्रुइबो</w> 94
commun ity</w> 94
गोरलै यै</w> 94
फोजोब स्रां 94
थिखि नि 94
stit ute</w> 94
design ed</w> 94
etc .	 94
diffic ult</w> 94
Wor ld</w> 94
Acc ording</w> 94
2 2 93
आ ह 93
ै नि</w> 93
a im 93
r ural</w> 93
l ang 93
l ack</w> 93
t in 93
t ook</w> 93
f air 93
in e 93
st ep 93
बि हाय</w> 93
बु द्ध 93
ti f 93
am ount</w> 93
गु रु 93
di ver 93
ig r 93
जे ं</w> 93
गोसो म</w> 93
खौ रा 93
br ought</w> 93
pre par 93
bl ue</w> 93
co ff 93
form s</w> 93
enti re</w> 93
दर से</w> 93
go ing</w> 93
cur ren 93
destin ations</w> 93
समाव ,</w> 93
गोरा न</w> 93
shr ine</w> 93
मिथिंगा नि</w> 93
स लि 92
द ’ 92
a di 92
B al 92
F ort 92
in k</w> 92
था नाय 92
सो माव 92
मि नारि</w> 92
ig g 92
um p 92
रो खा 92
माव ख 92
हि न्दु 92
ता नि</w> 92
पु रा 92
नांग ौ,</w> 92
है नो</w> 92
गं से 92
de ath</w> 92
गथ फोरनि</w> 92
18 5 92
att ach 92
ण् ड</w> 92
hi b 92
कल का 92
पार् क 92
गुर ै</w> 92
गहे ना 92
pilgrim age</w> 92
found ed</w> 92
sett l 92
Centr al</w> 92
tot al</w> 92
num erous</w> 92
ambo o</w> 92
2 7 91
s es</w> 91
s on</w> 91
थ े</w> 91
M un 91
h und 91
' ' 91
g ets</w> 91
इ ण्डि 91
C al 91
G wal 91
T i 91
P ort 91
.	 जेब्ला</w> 91
er a</w> 91
en ch 91
सि लि 91
सि ना</w> 91
st er 91
st ic</w> 91
गा र</w> 91
दि नै</w> 91
di arr 91
ab ility</w> 91
est er 91
le ave</w> 91
cl us 91
नां गोन</w> 91
19 5 91
19 6 91
tim e,</w> 91
ant ly</w> 91
ess ed</w> 91
ess ential</w> 91
गोख्र ै 91
जारिमि न</w> 91
az ing</w> 91
लिर थाय</w> 91
visit ors</w> 91
गाहाय ै</w> 91
del ic 91
मन्दिर खौ</w> 91
Pal ac 91
बय निख्रुइ</w> 91
न्ट ा</w> 91
Mus eum</w> 91
roc k</w> 91
det er 91
sum mer</w> 91
नाङ ैनो</w> 91
स त 90
ल आ</w> 90
r ist 90
न ग 90
न आ</w> 90
l e.	 90
h owever,</w> 90
o id 90
f ig 90
f ace</w> 90
D ar 90
O ther</w> 90
in ess</w> 90
at n 90
re al</w> 90
re ver 90
al low 90
बि थि 90
el im 90
बो लो 90
ent ,</w> 90
सु ग्लाय 90
दाव हा 90
sh ad 90
ing ly</w> 90
li st 90
जौ सिन</w> 90
मे ला</w> 90
कि उ 90
सार नि</w> 90
par t 90
Ch h 90
Sh e</w> 90
लामा खौ</w> 90
जारिमि ननि</w> 90
centur y.	 90
खुदिया नि</w> 90
जें ना</w> 90
दानख ʼ 90
Mar ath 90
sim ple</w> 90
sle ep</w> 90
typ e</w> 90
Pe o 90
prac tic 90
जौखोन दो 90
probl em 90
rail way</w> 90
2 2</w> 89
आ इ</w> 89
न निफ्राय</w> 89
K um 89
s av 89
ग ड़</w> 89
ख ारि</w> 89
b ow 89
N IC 89
L e 89
J ais 89
j ect</w> 89
ना ला 89
जा से 89
जा उन</w> 89
re ady</w> 89
it ary</w> 89
दा उ 89
ac commod 89
om et 89
हो दोंमोन</w> 89
pl y</w> 89
बाय थानाय</w> 89
फा मु 89
लि या 89
गोना ङै</w> 89
थाव ै</w> 89
iti es,</w> 89
eas ily</w> 89
मिथि जायो।</w> 89
सोलाय नाय</w> 89
होब थानाय</w> 89
infec tions</w> 89
go es</w> 89
bab ies</w> 89
जायो ब्ला</w> 89
बोथोर ाव</w> 89
pol it 89
बिर दिङा 89
बिदि न्थि</w> 89
लोर बां</w> 89
Br ah 89
mid dle</w> 89
individ u 89
mort ality</w> 89
Loc ated</w> 89
exquis ite</w> 89
Ev en</w> 89
फ ै</w> 88
ल ारि</w> 88
e astern</w> 88
न बे 88
n erv 88
प र 88
b es 88
ङ ो 88
S w 88
जा म 88
जा ।</w> 88
re fl 88
मोन दोंमोन।</w> 88
मोन गोन</w> 88
st art</w> 88
ro n</w> 88
ch ick 88
लि उ 88
tr a 88
लाय - 88
ex tre 88
sh aw 88
दै या</w> 88
मे दा 88
फु ंनि</w> 88
वा नि</w> 88
माव मिन 88
गोसो खां</w> 88
cl ass 88
eas y</w> 88
pe ak 88
न्द ै</w> 88
थै - 88
थै नाय</w> 88
गोहो खौ</w> 88
गेजेर नि</w> 88
Al so</w> 88
pos si 88
खुदि याया</w> 88
childre n.	 88
हार ा</w> 88
सोहोर ा</w> 88
खम सिन</w> 88
old est</w> 88
यो दि</w> 88
मुसु खा</w> 88
सिया नि</w> 88
Un ited</w> 88
immun e</w> 88
सांग्रा ं 88
त्रा इ 88
मुलाम फा 88
2 3 87
र त 87
K on 87
व ।</w> 87
ख हा 87
g old</w> 87
C ity</w> 87
er ve</w> 87
ोन ,</w> 87
गो गो</w> 87
re n</w> 87
बा दनि</w> 87
बि लाइ 87
मा से</w> 87
ic y</w> 87
बो सोन</w> 87
बो थोर</w> 87
ab s 87
हाय ो 87
s.	 बेयो</w> 87
जु जि 87
हाद र</w> 87
pr iv 87
जों नो</w> 87
ess ive</w> 87
form ed</w> 87
abl e.	 87
थाखाय ।</w> 87
फोरबो आ</w> 87
bir ds</w> 87
sup port</w> 87
नानै ।</w> 87
जोबोर ैनो</w> 87
फसं था 87
बायजो आव</w> 87
eymo on</w> 87
फारा ग 87
गसा य</w> 87
sch ool</w> 87
आयु र 87
Ah med 87
invest ig 87
2 - 86
आ हार</w> 86
ब बे 86
ह ारि</w> 86
द ायाव</w> 86
a id 86
d est 86
A g 86
ो नि</w> 86
ं क 86
m y</w> 86
m ag 86
p ill 86
J an 86
था नाया</w> 86
it es</w> 86
बि न 86
es sion 86
दि ङा</w> 86
दाव हा</w> 86
sh e 86
sh e</w> 86
sp ect 86
लो म</w> 86
af ter 86
ग्रा ,</w> 86
ach iev 86
ओनसोल खौ</w> 86
inter national</w> 86
iz e</w> 86
बाहागो आ</w> 86
out side</w> 86
includ es</w> 86
centur y,</w> 86
high ly</w> 86
hand s</w> 86
nor thern</w> 86
नाया बो</w> 86
थान सालि 86
सिनाय थि 86
खैफो द</w> 86
En joy</w> 86
bi g</w> 86
grow th</w> 86
fact ors</w> 86
बांसि नै</w> 86
खृ ष्ट 86
colour ful</w> 86
आस ्र 86
Tam il</w> 86
2 8</w> 85
आ बाद 85
फ ्ला 85
r ice</w> 85
l ah 85
s ;</w> 85
ख हा</w> 85
3 8 85
W estern</w> 85
V ar 85
O c 85
U d 85
er y,</w> 85
st and</w> 85
बि बु 85
बि लाय 85
मा नो</w> 85
il li 85
ur v 85
थाय ो,</w> 85
wh er 85
स् ता 85
जौ थाय 85
par ents</w> 85
गाव ारि</w> 85
फै दोंमोन।</w> 85
खौ रां</w> 85
गथ नि</w> 85
खे ंख 85
खाथि नि</w> 85
गोजोन नाय</w> 85
थाखाय बो</w> 85
fort s</w> 85
stre t 85
stand ing</w> 85
बिगु र</w> 85
nutr ition 85
Ro ad</w> 85
gener ally</w> 85
Kashm ir</w> 85
surv iv 85
stu dies</w> 85
Delhi ,</w> 85
आ ,</w> 84
आ बेग 84
ल फोरनि</w> 84
द ु</w> 84
d en</w> 84
k ar</w> 84
t ax 84
ज यै</w> 84
p ical</w> 84
J un 84
J ain</w> 84
T er 84
ना ग 84
ना नो</w> 84
an nu 84
.	 4 84
गो लोम</w> 84
at ures</w> 84
आर ो 84
आर जि 84
नाय नायनि</w> 84
सि मा</w> 84
st er</w> 84
ro le</w> 84
ac ks</w> 84
जि ं 84
बाय ा</w> 84
em pl 84
wh ose</w> 84
us es</w> 84
im medi 84
con st 84
खालाम जानाय</w> 84
ed ge</w> 84
स् पे 84
मिथि नो</w> 84
जायगा फोराव</w> 84
ब्र ै 84
diseas es.	 84
sit es</w> 84
spec ial 84
spec ific</w> 84
जिराय नाय</w> 84
थावनि ।</w> 84
lu x 84
jour ney</w> 84
charac ter 84
kil omet 84
Uttar anch 84
आ ंनि</w> 83
a e 83
a )</w> 83
a ul 83
d ed</w> 83
क ार् 83
ख न् 83
w rit 83
R e 83
p en 83
V alle 83
ना थानाय</w> 83
an g</w> 83
on es</w> 83
मा य</w> 83
नि - 83
as th 83
मो खां 83
मो गि</w> 83
जे थो 83
जे रावबो</w> 83
con ven 83
सान नाय</w> 83
बै याव</w> 83
गोसो आव</w> 83
गिरि फोरखौ</w> 83
क् लि 83
साव थु 83
ant ,</w> 83
inf ant</w> 83
18 0 83
हाग्रा मा</w> 83
rec ogn 83
बेराम फोरनि</w> 83
सिगा ंनि</w> 83
आदार नि</w> 83
खाजा खौ</w> 83
ren g 83
फोरबो नि</w> 83
सोलों थाय</w> 83
hot el 83
गां से</w> 83
मुलुग नि</w> 83
scen ic</w> 83
tod ay</w> 83
opportun ity</w> 83
मिलिय न</w> 83
color ful</w> 83
बिमा- बिफा 83
खोख लै 83
Port ug 83
Peo ple</w> 83
d s,</w> 82
s even</w> 82
प ा</w> 82
w in 82
w ay 82
ज े</w> 82
g etting</w> 82
m ind 82
C ar 82
अ फ</w> 82
S c 82
T B</w> 82
F r 82
th ro 82
.	 8 82
.	 7 82
al g 82
al though</w> 82
हा थाव।</w> 82
st om 82
st reng 82
मि ना 82
मि लि 82
जि व</w> 82
ad equ 82
s.	 बे</w> 82
दाव गा 82
दाव हानि</w> 82
be hav 82
दै थाय 82
ain t</w> 82
bu y</w> 82
se qu 82
के न् 82
ast er 82
गोजा ं</w> 82
Ch enn 82
गिरि ,</w> 82
फ्र ु 82
गथ ’</w> 82
pres su 82
enc es</w> 82
esh war 82
अनजि मा</w> 82
struc ture</w> 82
liv er</w> 82
Bh op 82
मुहि नां</w> 82
histor ic</w> 82
हें था</w> 82
sub st 82
effec tiv 82
activ ities</w> 82
some thing</w> 82
जादों ,</w> 82
कि.मि. )</w> 82
Pun j 82
ism ,</w> 82
Americ an</w> 82
बर् ग</w> 82
clin ical</w> 82
गोसोबोगथाब मा 82
Arab ian</w> 82
उबार कु 82
Jais al 82
9 9</w> 81
4 7</w> 81
4 8</w> 81
4 00</w> 81
y - 81
c av 81
M el 81
h ar</w> 81
b ar</w> 81
( the</w> 81
- हो 81
m om 81
ी या</w> 81
अ खा</w> 81
J amm 81
G overnment</w> 81
re f 81
नाय )</w> 81
it ation</w> 81
बा ला</w> 81
सा नाय</w> 81
or al</w> 81
थि यै</w> 81
नि क 81
जि . 81
ch ,</w> 81
av a</w> 81
con ver 81
sh ow</w> 81
pro per</w> 81
मे न 81
माव नाय</w> 81
gr and</w> 81
बुं फबनाय</w> 81
गिरि फोरजों</w> 81
मानसि फोरनि</w> 81
templ e,</w> 81
air port</w> 81
प्रदे सनि</w> 81
dep res 81
जाहो नाव</w> 81
them sel 81
see ing</w> 81
Aj mer</w> 81
दोहो नि</w> 81
स ल’ 80
d ou 80
. )</w> 80
न ब 80
s low 80
M ed 80
b amboo</w> 80
ज थाय 80
m ain 80
S il 80
S ep 80
j i</w> 80
7 5</w> 80
.	 5 80
गो दान 80
सा खौ</w> 80
सि ,</w> 80
सि याव</w> 80
बि खा</w> 80
थि सन 80
दि दो 80
as is</w> 80
am ic</w> 80
बो नि</w> 80
um ,</w> 80
com pan 80
रो गा 80
all ,</w> 80
ता ज 80
नां नाय</w> 80
pres erv 80
me th 80
रं जानाय</w> 80
ser ious</w> 80
cu t</w> 80
थिं जाय</w> 80
do m</w> 80
थासारि याव</w> 80
int ro 80
Wh ile</w> 80
build ings</w> 80
अनगाय ै 80
grou p 80
जेरै बादि</w> 80
pat ter 80
आफा द 80
prac t 80
death s</w> 80
जाफुं सार 80
cuis ine</w> 80
बाख नाय 80
Vis it</w> 80
डाय बे 80
spect ac 80
ह नि</w> 79
म ै</w> 79
द ी 79
a g</w> 79
n ast 79
t ext 79
w it 79
w all</w> 79
3 2</w> 79
इ न् 79
m el 79
p ack 79
J ah 79
था ङो।</w> 79
er al</w> 79
ar ed</w> 79
on e.	 79
ou ld 79
al co 79
बे बादि</w> 79
ro om 79
मि नथि 79
हो खार 79
ad minist 79
em erg 79
से बां</w> 79
ak k 79
no t 79
con c 79
ex otic</w> 79
स् वा 79
गाय खेर</w> 79
gr and 79
महर दानख 79
हु दा 79
anc ed</w> 79
tem por 79
गिरि फोर</w> 79
जायगा ,</w> 79
नां थाव</w> 79
खां नायनि</w> 79
मै खो 79
मै देर</w> 79
Sh ah 79
pr inc 79
reg ard 79
खामानि खौ</w> 79
बोसोर ाव</w> 79
nu tri 79
sup port 79
amb i 79
mat ernal</w> 79
हान जा</w> 79
सिकित सा</w> 79
star ted</w> 79
सोरा ं 79
don 't</w> 79
exercis es</w> 79
Utt ar</w> 79
गले - 79
मेग न</w> 79
educ ation</w> 79
near est</w> 79
trek king</w> 79
sing le</w> 79
बावै सो</w> 79
Bhar at 79
commerc ial</w> 79
Hon eymoon</w> 79
lang u 79
म ौ 78
K ing</w> 78
n 't</w> 78
n ess.	 78
s cho 78
ग ्रि</w> 78
प ोर 78
M o 78
b s</w> 78
ध ार 78
N il 78
Y our</w> 78
m u 78
0 . 78
उ लाफा 78
J odh 78
भ ा</w> 78
in ary</w> 78
re ly</w> 78
बा गा 78
al e</w> 78
st s</w> 78
ic .	 78
जि ब</w> 78
गु दि 78
फा ंनि</w> 78
ev idence</w> 78
res ults</w> 78
दै खौ</w> 78
बार ग 78
sp e 78
oo t</w> 78
महर ै,</w> 78
पु र,</w> 78
थार ै</w> 78
ग्रा फोर</w> 78
br ing</w> 78
car ry</w> 78
ब्र े 78
sc ri 78
lif e,</w> 78
year s,</w> 78
ion ,</w> 78
भे ल</w> 78
बर फ</w> 78
aff ected</w> 78
gu id 78
हारिमु नि</w> 78
मुलु ग</w> 78
sim il 78
shop s</w> 78
बन्द सान</w> 78
गोजाम सिन</w> 78
thir d</w> 78
मुखु ब</w> 78
Gand hi</w> 78
invol v 78
नारे ंख 78
2 8 77
ल ो</w> 77
u es</w> 77
u ary</w> 77
i er</w> 77
क ला 77
ग ड़ 77
t est</w> 77
प ्ला 77
ख ै</w> 77
3 , 77
- जा 77
f ish</w> 77
N ad 77
m emb 77
B C 77
B y</w> 77
6 ,</w> 77
in ing</w> 77
re stric 77
re fer 77
ला से</w> 77
ला ङो</w> 77
खा न्थि</w> 77
हा दोर</w> 77
मोन बा</w> 77
बि जाब 77
बे ले 77
नि ।</w> 77
ic able</w> 77
ab ad,</w> 77
ारि ,</w> 77
ent y</w> 77
से ल 77
दे ं 77
con cer 77
ex per 77
res ort</w> 77
com mon 77
com fort 77
देर नाय</w> 77
Ch rist 77
नां थाब 77
फै नो</w> 77
ect or</w> 77
ound s</w> 77
dr aw 77
fin est</w> 77
नङा ब्ला</w> 77
हादर सा</w> 77
फ्ल ु 77
थासारि खौ</w> 77
मोदो म</w> 77
देहाय ा</w> 77
ओनसो ला</w> 77
decor ated</w> 77
vitam in</w> 77
2 9</w> 76
स हाय 76
र ो</w> 76
फ ाव</w> 76
r h 76
i b 76
क ाया</w> 76
A mon 76
h our</w> 76
w r 76
m ight</w> 76
उ खै 76
j unc 76
B an 76
F ren 76
th ick</w> 76
ना व,</w> 76
.	 मोनसे</w> 76
re t 76
re al 76
on s,</w> 76
खा जुरा 76
दा इ 76
दि मो 76
wh ether</w> 76
im press 76
res earch</w> 76
खालाम नाया</w> 76
स् ते 76
सान जा 76
ast s</w> 76
Ch and 76
मिथि नाय</w> 76
tre es</w> 76
tre ated</w> 76
car p 76
Sh ah</w> 76
ell ing</w> 76
if e</w> 76
बाव नाय</w> 76
खामानि नि</w> 76
दोर ों 76
खुदिया फोरा</w> 76
struc t 76
फसं थान 76
ve ill 76
फोरनि याव</w> 76
meas ures</w> 76
सरजाब फा 76
Bangal ore</w> 76
mosqu it 76
aver age</w> 76
cocon ut</w> 76
आह मेदा 76
diarr ho 76
2 . 75
फ ौ 75
फ ेर 75
म खौ</w> 75
म हाम 75
e )</w> 75
c orn 75
l ate</w> 75
l aid</w> 75
ख था</w> 75
ज ’ 75
f air</w> 75
D es 75
ए रै 75
j un 75
th ings</w> 75
in take</w> 75
ar eas 75
फोर )</w> 75
en z 75
ला र</w> 75
बा दा</w> 75
बे दि 75
बे ंग 75
is land</w> 75
मो खां</w> 75
di c</w> 75
tr aining</w> 75
av ing</w> 75
मह ल</w> 75
होन ायाव</w> 75
का स् 75
का श् 75
खाय ा</w> 75
गाव सोर 75
ता न 75
ति नि</w> 75
ill ing</w> 75
ill ness</w> 75
me an 75
fl av 75
फे ले 75
war m</w> 75
गोसार नाय</w> 75
बादि नो</w> 75
exc essive</w> 75
rem ain</w> 75
sou thern</w> 75
day ,</w> 75
clo s 75
festiv als</w> 75
नखर नि</w> 75
anch i</w> 75
nutr itional</w> 75
एइ स 75
cal ories</w> 75
Rajasth an.	 75
Pro gr 75
breath ing</w> 75
stit u 75
रोंगौ थि</w> 75
दम फां 75
Aurang abad</w> 75
आ बु</w> 74
ब रनि</w> 74
ल क 74
ल फोरा</w> 74
y m 74
y og 74
i - 74
A no 74
l ing 74
s of 74
ग ्राया</w> 74
o s</w> 74
o il 74
- सि 74
f a 74
f ind 74
D is 74
V ish 74
F estiv 74
in a</w> 74
जा नांगौ</w> 74
or ity</w> 74
जाय खि</w> 74
जि द</w> 74
pl an</w> 74
लि म 74
नो बो</w> 74
ev en 74
दे लाय 74
sh ort 74
बां नाय</w> 74
su per 74
ति स 74
oc k 74
टि क</w> 74
tion s,</w> 74
ure s,</w> 74
de gre 74
nat ak 74
Raj a</w> 74
tu berculos 74
गथ’ फोरा</w> 74
हां खो 74
लास ै 74
anti bi 74
pol i 74
जिव नि</w> 74
sion .	 74
anim al</w> 74
सोरा ं</w> 74
Kar natak 74
clim ate</w> 74
Pradesh .	 74
follow ed</w> 74
wood en</w> 74
pow er</w> 74
बाथ ्रा 74
probl ems</w> 74
inn er</w> 74
mi x 74
fasc inating</w> 74
Portug u 74
2 7</w> 73
4 5 73
ह ों 73
म आ</w> 73
r ound</w> 73
d os 73
क ्ला 73
w el 73
ज न</w> 73
ज ्रा 73
m em 73
G ar 73
at ed.	 73
ला ं</w> 73
ला खौ</w> 73
मा ना 73
ac tu 73
दि नै 73
हो म 73
am un 73
et s.	 73
ent ed</w> 73
रि या 73
या बो</w> 73
खालाम ।</w> 73
खालाम नायाव</w> 73
ay a</w> 73
le uk 73
लो इ 73
रो खायै</w> 73
नु जायो।</w> 73
Indi a's</w> 73
फु नाय</w> 73
ast ing</w> 73
सं नो</w> 73
pres s</w> 73
inf l 73
ect ing</w> 73
पे रा 73
mus eum 73
att en 73
att ack</w> 73
peo ple.	 73
लामा ।</w> 73
out break</w> 73
to x 73
hel ps</w> 73
हाबा फारि</w> 73
pur pos 73
ric k 73
ric h 73
थासारि या</w> 73
रोखोम रोखोम</w> 73
मोन् दां 73
एल ार् 73
rul ers</w> 73
हान जाया</w> 73
grou ps</w> 73
सोदो ब</w> 73
जाहा थे</w> 73
gener al</w> 73
जानो हागौ</w> 73
Co ch 73
spir it 73
थों जों</w> 73
famil ies</w> 73
गुवार ै</w> 73
carri ed</w> 73
Hot el</w> 73
बनद’ सान</w> 73
muscl es</w> 73
xim ately</w> 73
doct or</w> 73
कृ ष्ण 73
हेपाटाइ टि 73
urv ed 73
intro duc 73
2 , 72
स ल</w> 72
त फोर</w> 72
ा व,</w> 72
ह ् 72
ल - 72
r ide</w> 72
e tic</w> 72
c ool</w> 72
. ,</w> 72
ख ं</w> 72
ज म् 72
g ateway</w> 72
ध ोनि</w> 72
S at 72
S ang 72
B ag 72
घ न्टा 72
an as 72
in ed</w> 72
ar ing</w> 72
ar y,</w> 72
गो दै</w> 72
it ely</w> 72
खा जाया</w> 72
बा स 72
ad vis 72
ab dom 72
ul y</w> 72
रि जर् 72
ex ic 72
res ult 72
नु थायखौ</w> 72
राय जो</w> 72
राय ज्लाय 72
सं दान 72
गोनां थार।</w> 72
tre as 72
wat ch</w> 72
bl e.	 72
cent er</w> 72
गोहो नि</w> 72
होनाय ,</w> 72
exc ept</w> 72
फोरमाय ो।</w> 72
जाहोन ा</w> 72
bas e</w> 72
खोन् दो</w> 72
chang es</w> 72
wee k</w> 72
gard ens</w> 72
थुलु ंगा</w> 72
जै न</w> 72
orig inal</w> 72
condition s</w> 72
sum m 72
sport s</w> 72
Gre at</w> 72
chol ester 72
signific ant</w> 72
ativ ely</w> 72
morn ing</w> 72
energ y</w> 72
mul ti 72
अनगायै बो,</w> 72
veill ance</w> 72
2 000</w> 71
ह रनि</w> 71
e b 71
i ble</w> 71
c ru 71
न ोर 71
s ex 71
' .	 71
f t 71
f ab 71
g lo 71
m ,</w> 71
5 5</w> 71
z h 71
T re 71
T od 71
B ad 71
जा ,</w> 71
था म् 71
फोर खौ 71
re now 71
re present 71
हा स 71
बि मानि</w> 71
ro ads</w> 71
सो हो 71
न् थ 71
जि रा 71
फा नि</w> 71
av oid 71
मह लनि</w> 71
pro mot 71
In d 71
se ed 71
par ad 71
str at 71
जायगा फोर</w> 71
म् प 71
रं जा</w> 71
बोसोर ारि</w> 71
stat e,</w> 71
15 0</w> 71
सनदेर जानाय</w> 71
महारा जा</w> 71
food .	 71
giv es</w> 71
ये ल</w> 71
On ce</w> 71
अनगाय ै</w> 71
बारदेर नाय</w> 71
saf e</w> 71
बाजा र</w> 71
हटे ल</w> 71
Gujar at</w> 71
भिता मिन</w> 71
आ थो 70
फ र् 70
r an 70
k h 70
s ep 70
ग म 70
झ ा 70
प ारा 70
ख ्ला 70
ख मै 70
M exic 70
o .	 70
3 4</w> 70
- ला 70
H is</w> 70
g i 70
D ep 70
ए खे 70
6 5</w> 70
" .	 70
ना र् 70
था नायखौ</w> 70
ar rang 70
on ers</w> 70
st un 70
st op</w> 70
बि दु 70
बि मायारि</w> 70
गा खो 70
ic e.	 70
ac tive</w> 70
om b 70
जि क</w> 70
गु से 70
लि ,</w> 70
लि क</w> 70
tr a</w> 70
ev ening</w> 70
लाय नायनि</w> 70
be h 70
सान जौ 70
थु न 70
19 7 70
br ain</w> 70
आय दा 70
बाहागो खौ</w> 70
dr y</w> 70
gl ass</w> 70
गथ’ नि</w> 70
attrac ts</w> 70
tow n.	 70
dep ress 70
फराय सालि</w> 70
vacc ines</w> 70
गां सो 70
थाम थि</w> 70
pass ed</w> 70
dy nast 70
इसि ङारि</w> 70
jew ell 70
Europe an</w> 70
ench ant 70
empl oy 70
behav i 70
सोहो र</w> 70
9 0 69
ब न</w> 69
ल फोर,</w> 69
ल गन 69
द ाया</w> 69
क ्रा 69
l ab 69
s ar 69
ग ंगा</w> 69
o il</w> 69
- जानाय</w> 69
f oc 69
g ed</w> 69
" ,</w> 69
जा नु 69
था गिबि</w> 69
at s,</w> 69
हा थाय</w> 69
हा ंख 69
मोन नायनि</w> 69
or s,</w> 69
रा हाया</w> 69
नि सिम</w> 69
सो लाय</w> 69
el ev 69
मो गा 69
मो दान 69
स् पि 69
and ,</w> 69
सान फोर</w> 69
दावबाय नायाव</w> 69
बार ् 69
ter m</w> 69
for get</w> 69
राज उलाफा 69
wor d</w> 69
Ch andi 69
ग्रा - 69
फै यो</w> 69
de ity</w> 69
pres cri 69
जौगा नायनि</w> 69
हाग्रा मानि</w> 69
लाव - 69
Mahar aja</w> 69
दानख ’ 69
खरं खौ</w> 69
बिबा ङा</w> 69
mat er 69
हिमा चल</w> 69
wee ks</w> 69
sympt om 69
gard en 69
गैय ै 69
Is land 69
thous ands</w> 69
गेजेरा व,</w> 69
estim ated</w> 69
fron t</w> 69
psy ch 69
tog ether</w> 69
Child ren</w> 69
slo p 69
Oc to 69
Sep tem 69
मैखो म</w> 69
renow ned</w> 69
2 1 68
स र् 68
ल जों</w> 68
e z 68
c ell</w> 68
K umb 68
l un 68
l e,</w> 68
s at 68
ख ो</w> 68
w a 68
3 1</w> 68
H ist 68
g overn 68
N o</w> 68
S ult 68
J ag 68
J oh 68
B aza 68
F ebr 68
ना हम 68
st ro 68
ac y</w> 68
is ion</w> 68
el y,</w> 68
Th er 68
Th ir 68
am ed</w> 68
ag ir 68
या वबो</w> 68
सु ल 68
con f 68
ex clus 68
In do 68
जु निय 68
बार ाव</w> 68
es.	 बे</w> 68
रे स्ट 68
Ch ar 68
fe eling</w> 68
pres ence</w> 68
ail s</w> 68
ओनसोल ारि</w> 68
फारि याव</w> 68
धोर ोम</w> 68
मुवा फोरनि</w> 68
war a</w> 68
रंजा ।</w> 68
सोमो थाव</w> 68
दर खं 68
लाखि नो</w> 68
produc ed</w> 68
जोबोर ै</w> 68
complet ely</w> 68
mis s</w> 68
उदां स्रि</w> 68
proc ess</w> 68
suppl y</w> 68
fur n 68
Tour ism</w> 68
occur s</w> 68
ओंखा म</w> 68
बेद र</w> 68
diagnos is</w> 68
tom b</w> 68
मेलेम ारि</w> 68
2 ,</w> 67
स मि 67
र ड 67
र निफ्राय</w> 67
r at 67
d ense</w> 67
c ou 67
क ’ 67
k ind</w> 67
n est 67
ग साय 67
व ायाव</w> 67
b ag 67
H ere</w> 67
m ic 67
F l 67
ना खौ</w> 67
in st 67
.	 नोंनि</w> 67
था ब</w> 67
it 's</w> 67
it able</w> 67
it ems</w> 67
en ess</w> 67
बा उ 67
हा थि 67
सा फोर</w> 67
or ang 67
बि खान्थि 67
नि ल 67
pl ay</w> 67
ol ,</w> 67
tr ue</w> 67
ab il 67
हाय ारि</w> 67
ow s</w> 67
थाव ना।</w> 67
जु दि 67
सार ् 67
थो नाव</w> 67
all y.	 67
पा उ 67
wor k,</w> 67
अन थाइ 67
ri ed</w> 67
लां दोंमोन।</w> 67
खौ से 67
wat er.	 67
me als</w> 67
पि . 67
cont ains</w> 67
know l 67
फे ब्रु 67
फोरा ,</w> 67
मोनसे या</w> 67
stat ue</w> 67
riv ers</w> 67
गासि नो 67
bel ow</w> 67
centur ies</w> 67
cons ists</w> 67
नाया व,</w> 67
सिबि यारि 67
बिबा न 67
भाइ रेल</w> 67
ra ther</w> 67
राजा नि</w> 67
Maharashtr a.	 67
बिदि नो</w> 67
long er</w> 67
बांसि नानो</w> 67
Aj anta</w> 67
fri end 67
experienc e.	 67
lov ely</w> 67
rout e</w> 67
spl en 67
ly m 67
memor able</w> 67
Mumbai ,</w> 67
programm e</w> 67
Inter national</w> 67
Kashmir ,</w> 67
grad ually</w> 67
मोखा ङाव</w> 67
Shim la</w> 67
सोमाव सार 67
simil ar</w> 67
Ano ther</w> 67
आ गान</w> 66
ल निफ्राय</w> 66
द ्राय 66
y g 66
y el 66
r ates</w> 66
c ave</w> 66
A ug 66
ु गु 66
l es,</w> 66
s and</w> 66
t issu 66
M as 66
ज ं 66
- दा 66
H ill 66
f our 66
D al 66
N e 66
m and 66
ी ,</w> 66
I t 66
E ll 66
th us</w> 66
an s.	 66
er able</w> 66
नाय नाय</w> 66
ला दोंमोन।</w> 66
बा न</w> 66
ou se</w> 66
मोन ो,</w> 66
सा खि 66
सि थ 66
बि हो 66
दा य</w> 66
दि ल् 66
मि .</w> 66
से र</w> 66
ap pe 66
od s</w> 66
com ing</w> 66
दै ज्ला 66
cl aim 66
सं रैखाथि 66
dis h 66
थार ाव</w> 66
फै दोंमोन</w> 66
ant .	 66
खोन दो 66
co st 66
pos ition</w> 66
लामा ,</w> 66
आदार ा</w> 66
होनाय खौ</w> 66
सोमजि होनो</w> 66
गामि नि</w> 66
leg end 66
contro l 66
mos ph 66
Kol l 66
norm ally</w> 66
mark et</w> 66
मख ʼ 66
बौ द्ध 66
my th 66
Ab out</w> 66
Destin ations</w> 66
Khajurah o</w> 66
win ter</w> 66
9 5</w> 65
न फोर,</w> 65
ज ध 65
3 - 65
f arm 65
Y amun 65
p t</w> 65
p ut 65
p ath 65
ट ् 65
अ ल 65
S i 65
T ri 65
P ush 65
फोर निख्रुइ</w> 65
at mosph 65
re ally</w> 65
नाय फोर,</w> 65
it self 65
en th 65
खा र</w> 65
हा न्थि 65
मा उ 65
बे हा</w> 65
ro om</w> 65
थि क</w> 65
रा मि 65
om a</w> 65
ec tive</w> 65
ारि फोरनि</w> 65
iv es</w> 65
os is</w> 65
con duc 65
be y 65
sh own</w> 65
स् टि 65
फि थाय</w> 65
com par 65
bu st 65
नु नाय</w> 65
ter rit 65
लै थोर 65
के म 65
नां जाब 65
ure s.	 65
ai ,</w> 65
हारि नि</w> 65
reg ul 65
pos ed</w> 65
fin ed</w> 65
har d</w> 65
आदार फोर</w> 65
स्त ु 65
गोसार ना</w> 65
दिनथि यो।</w> 65
pur .	 65
.ए स 65
go t</w> 65
अनजि माया</w> 65
ys ore</w> 65
नखर ारि</w> 65
rul ed</w> 65
एम . 65
उना व 65
dom in 65
Buddh a</w> 65
bus es</w> 65
dru g</w> 65
गासै खौबो</w> 65
char m</w> 65
allerg ic</w> 65
level s</w> 65
नङ ि</w> 65
tro pical</w> 65
श्र ी 65
Em peror</w> 65
दैबाज्रु म 65
succ ess 65
sour ce</w> 65
devot ees</w> 65
techn i 65
काश् मी 65
strat eg 65
ल सि 64
a u</w> 64
e u 64
A part</w> 64
s ight 64
ग ी 64
प ेरि 64
b ol 64
b orn 64
ए यार 64
ए प्रि 64
इ सोर</w> 64
m ir 64
m ild</w> 64
S e 64
S o</w> 64
S anctu 64
B ur 64
I sl 64
in ning</w> 64
ला फोर</w> 64
सा जों</w> 64
सि क 64
st or 64
बि जाब</w> 64
थि गोनां</w> 64
रा जायारि</w> 64
नि खु 64
सो ल</w> 64
ac coun 64
मि ल 64
जि या</w> 64
मो सा</w> 64
बो दोर 64
फा इ 64
दे व 64
ex hib 64
pro per 64
सान सेयाव</w> 64
le ph 64
le aves</w> 64
भार ा 64
दु र् 64
खाय से 64
बुं नो</w> 64
भारत ा</w> 64
ast ic</w> 64
wor k.	 64
मै गं</w> 64
vis ion</w> 64
wat er,</w> 64
जोब नायाव</w> 64
हादोर फोराव</w> 64
cre ated</w> 64
att le</w> 64
sit u 64
फाहाम थाय</w> 64
खामानि याव</w> 64
खन सार 64
templ e.	 64
बादि ब्ला</w> 64
भु पा 64
up on</w> 64
bir d</w> 64
lin es</w> 64
गन थ 64
रैखा थुम 64
produc ts</w> 64
vacc in 64
mount ains</w> 64
Man di 64
नायहै नो</w> 64
हानजा नि</w> 64
saf ari</w> 64
suff er</w> 64
them .	 64
लोर बां 64
ग्ला ं 64
seas on</w> 64
palac es</w> 64
comb ination</w> 64
जौखोन दो</w> 64
chur ch</w> 64
restaur ant</w> 64
temper ature</w> 64
landscap e</w> 64
tourist s.	 64
transm is 64
मेदि केल</w> 64
आजौसमफ थि</w> 64
Kolhap ur</w> 64
Gwal ior</w> 64
themsel ves</w> 64
spectac ular</w> 64
बेले - 64
impress ive</w> 64
जुनिय ायै</w> 64
लैथोर ुगु 64
4 8 63
4 7 63
4 2</w> 63
आ ʼ</w> 63
र जों</w> 63
त ाव</w> 63
फ ाया</w> 63
द ,</w> 63
d ing</w> 63
d ang 63
न र 63
k id 63
s em 63
t ain 63
प नि</w> 63
h ood</w> 63
- फा 63
ध ोन 63
N ar 63
ए म् 63
p ass</w> 63
उ सु 63
G et</w> 63
B o 63
था ।</w> 63
आर ज 63
on y</w> 63
सा ब</w> 63
बि ष्ण 63
दा थाय</w> 63
il es</w> 63
नि ला</w> 63
ic es,</w> 63
is lands</w> 63
ur g 63
Th e 63
हो यो 63
मु लै</w> 63
wh y</w> 63
lo se</w> 63
ंग ोन।</w> 63
दं मोन</w> 63
ay an 63
and a</w> 63
थाव ,</w> 63
दावबाय नायखौ</w> 63
ist ic</w> 63
गोसो खौ</w> 63
str um 63
ङा वनो</w> 63
हादोर ाव</w> 63
म् बर</w> 63
pr ay 63
बाहाय नानै</w> 63
gre at 63
bl ack</w> 63
ेरि या</w> 63
inter est</w> 63
लामा फोर</w> 63
acc es 63
import ance</w> 63
bod y,</w> 63
मोनसे ल’</w> 63
ik e</w> 63
abl e,</w> 63
cap it 63
war d</w> 63
बेरामि नि</w> 63
खमाय नाय</w> 63
rem ov 63
tow ns</w> 63
आखाय ाव</w> 63
नोंथा ंनि</w> 63
जय पुरनि</w> 63
बुथुम सालि 63
rul e</w> 63
हरखा बै</w> 63
activ ity</w> 63
some times</w> 63
partic ip 63
sil ver</w> 63
थिखि नि</w> 63
बृ टिस</w> 63
pilgrim s</w> 63
appro pri 63
appro ximately</w> 63
swe et</w> 63
sen sit 63
Engl ish</w> 63
सानथ ौ 63
outbreak s</w> 63
coo ked</w> 63
accommod ation</w> 63
priv ate</w> 63
Amon g</w> 63
2 6</w> 62
आ ंग 62
y )</w> 62
d er</w> 62
l ight 62
ग मा 62
थ ्र 62
M ysore</w> 62
w ard 62
3 5 62
H ol 62
g if 62
p ay</w> 62
ट ाव</w> 62
S al 62
P ak 62
E leph 62
ʼ नि</w> 62
जा थाय</w> 62
जा दु 62
जा नायाव</w> 62
नाय सिम</w> 62
ला स</w> 62
ला नाया</w> 62
ou red</w> 62
st op 62
बि बां</w> 62
मा र</w> 62
दा थाय 62
es )</w> 62
el y.	 62
am azing</w> 62
गु र</w> 62
बाय नाय</w> 62
ad d</w> 62
ad h 62
tr ain</w> 62
ag es.	 62
ag ain</w> 62
रि ं 62
या ।</w> 62
con fir 62
स् कि 62
pro bab 62
हाग ौ 62
दै - 62
op tions</w> 62
ले ण्ड 62
थो जासे 62
wor ks</w> 62
wor king</w> 62
मै हु 62
ant s,</w> 62
loc ation</w> 62
ail ed</w> 62
cre ate</w> 62
ओनसोल फोराव</w> 62
ser ve</w> 62
rec ent</w> 62
ight y</w> 62
बेराम फोर</w> 62
km ),</w> 62
मुवा फोरा</w> 62
des ert</w> 62
compl ex 62
दिन्थि नाय</w> 62
16 th</w> 62
.ए म 62
dep ic 62
tran qu 62
bir th 62
महारा ष्ट्र 62
आखाय जों</w> 62
आव ग्रि 62
ung le</w> 62
गोसोबो थाव</w> 62
veget able</w> 62
trib es</w> 62
सहै नो</w> 62
you ' 62
माब्ला बाबो</w> 62
hap s</w> 62
eh r 62
Himalay an</w> 62
गाइ खेर</w> 62
requi red</w> 62
जासि यो।</w> 62
smo k 62
Lond on</w> 62
augh t</w> 62
econom ic</w> 62
chec k</w> 62
बबे खानि</w> 62
tempor ary</w> 62
Fren ch</w> 62
sep ar 62
splen did</w> 62
आ थोन 61
फ ् 61
ल ।</w> 61
r av 61
d en 61
s 	 61
s now 61
ग ौ</w> 61
w all 61
ज ,</w> 61
m ed</w> 61
उ त 61
B ir 61
I d 61
I I 61
ना न 61
an s 61
जा फ्ले 61
.	 6 61
re port</w> 61
नाय गिदिं 61
ला म</w> 61
खा ब 61
बा न् 61
बा ख्रि 61
हा थर 61
मोन थि</w> 61
बि स</w> 61
ro id 61
रा म</w> 61
is land 61
el ,</w> 61
ad i</w> 61
ad ak 61
us i 61
खो म 61
pro ble 61
सान फ्रोम 61
ist ine</w> 61
थु बुर 61
टि . 61
tre e</w> 61
pre val 61
हाजो फोरनि</w> 61
हाजो यारि</w> 61
हाजो आरि</w> 61
ब्र ह् 61
हाग्रा मि</w> 61
ion .	 61
compl ic 61
vi a</w> 61
ब् याम</w> 61
त् र</w> 61
plac e.	 61
सासे आ</w> 61
थाखो आव</w> 61
मिरु ।</w> 61
increas es</w> 61
गैया ,</w> 61
ओं थि</w> 61
शि ल् 61
forest s,</w> 61
need ed</w> 61
bus iness</w> 61
fish ing</w> 61
direc t</w> 61
frequ ent</w> 61
fore ign</w> 61
Krishn a</w> 61
nar row</w> 61
charm ing</w> 61
malari a</w> 61
Hy der 61
गोदा नै</w> 61
सोद्रो मा 61
इण्डि या</w> 61
proble m</w> 61
आ य</w> 60
फ ु</w> 60
म - 60
द खर 60
y l 60
न वाव</w> 60
s e,</w> 60
t oo 60
थ ु</w> 60
H ous 60
f ar 60
ए वनाय</w> 60
m as 60
m igr 60
अ स 60
W al 60
T ow 60
B el 60
B ik 60
B omb 60
in k 60
ar riv 60
सि खि 60
मा लाय</w> 60
बे निफ्राय</w> 60
दा ब</w> 60
थि रां 60
जाय ि</w> 60
el eg 60
ur ,</w> 60
हो गोन</w> 60
pl enty</w> 60
मु न 60
लि र</w> 60
रि फि 60
ir rit 60
sh op</w> 60
pro ve</w> 60
गोर बो</w> 60
sp end</w> 60
नु यो।</w> 60
ब्ल े 60
लै क्ष 60
के त 60
ति उबारकु 60
ne igh 60
str i 60
जायगा फोरा</w> 60
ish ing</w> 60
pr istine</w> 60
आद ब</w> 60
हर ाव</w> 60
उन सं 60
ser ene</w> 60
हाग्रा माया</w> 60
acc ess</w> 60
बाव ो।</w> 60
do ing</w> 60
जागाय ो।</w> 60
countr y,</w> 60
मनदि रनि</w> 60
air ,</w> 60
फोरमाय थि 60
val u 60
emb roid 60
pic nic</w> 60
Am rit 60
world ,</w> 60
world 's</w> 60
Brit ish 60
met ers</w> 60
सिकित सानि</w> 60
monum ent</w> 60
फोलेर ारि</w> 60
sal t</w> 60
phys ici 60
follow ing</w> 60
spr aw 60
cir c 60
eymo oners</w> 60
ten sion</w> 60
उत्त र</w> 60
bro k 60
Su n</w> 60
उद य 60
alt itude</w> 60
नं गुबै</w> 60
राजसथा ननि</w> 60
Bu ilt</w> 60
औरं गा 60
adequ ate</w> 60
दें खो 60
लोइ खोन 60
enth usi 60
आ सि 59
फ र 59
फ ोन 59
d anc 59
क म् 59
न फोरखौ</w> 59
k i</w> 59
l aw 59
ग राय 59
व े</w> 59
ख ोर 59
M e 59
ज न 59
ज ग 59
ज ै</w> 59
f ati 59
D on 59
उ प 59
उ दै 59
5 9 59
S tre 59
G en 59
जा खां 59
at or</w> 59
ला बा 59
ला हाबा 59
खा फा 59
हा ल 59
सा फारि 59
सि ल 59
बि या 59
थि यारि 59
रा ,</w> 59
मि :</w> 59
मु लि</w> 59
ad e 59
ch em 59
फा नाय</w> 59
ag r 59
con centr 59
In stitute</w> 59
गाय ाव</w> 59
लु जादोंमोन।</w> 59
नु थाय 59
फु जि 59
फु ख्रि 59
माव ो।</w> 59
साब सिनथार</w> 59
महर ैबो</w> 59
oc k</w> 59
ने ल</w> 59
19 0 59
br on 59
कु म् 59
मन्दि राव</w> 59
सुबुं फोरखौ</w> 59
bl add 59
जों ।</w> 59
bre ath</w> 59
उन दै</w> 59
जौगा होनो</w> 59
खाथि सिन</w> 59
Al lah 59
खै ।</w> 59
off ering</w> 59
थे व 59
gl or 59
सेर नि</w> 59
are a.	 59
हार नि</w> 59
vi br 59
mil k,</w> 59
आग दा</w> 59
serv ice</w> 59
खाव से 59
fort ,</w> 59
clo th 59
गायसन दोंमोन।</w> 59
ty ph 59
ra w</w> 59
giv ing</w> 59
दोरो द 59
एन ति 59
wee k 59
फोनांजाब ो।</w> 59
फोनांजाब नाय।</w> 59
cal ori 59
contin ue</w> 59
suff ering</w> 59
region .	 59
typ es</w> 59
cle ar</w> 59
फोरों थाय</w> 59
गहे ना</w> 59
मुलाम फा</w> 59
pleas ant</w> 59
अराय बो</w> 59
ट्रे भेल</w> 59
prof ession 59
Chin ese</w> 59
गुबुन- गुबुन</w> 59
मद द</w> 59
step s</w> 59
abs or 59
Ud ai 59
annu al</w> 59
main ly</w> 59
Portugu ese</w> 59
bey ond</w> 59
आंग ो</w> 59
आ बाद</w> 58
फ ायाव</w> 58
ल ना 58
द ्रि 58
d ate</w> 58
न ’</w> 58
A p 58
k ey</w> 58
K e 58
K ath 58
s cre 58
s now</w> 58
ग ’ 58
ग ंग 58
ग ने 58
M iz 58
ड ार 58
H A 58
D am 58
D har 58
m ove</w> 58
R ail 58
उ इ 58
C ap 58
W H 58
P anch 58
B es 58
an th 58
गो दोन 58
re ds</w> 58
नाय नानै</w> 58
on e,</w> 58
हा गोन</w> 58
सि दो 58
or ch 58
बि दिन्थि 58
मा जों</w> 58
दा निया</w> 58
il ed</w> 58
as k</w> 58
ti ous</w> 58
जि लानि</w> 58
जि ल्ला 58
मु ना</w> 58
गु रु</w> 58
सु फुं 58
लाय फां 58
स् नाय 58
मह ला</w> 58
qu ant 58
बार नि</w> 58
ain ,</w> 58
ain s,</w> 58
का ल 58
कि :</w> 58
के मि 58
थार नांगोन।</w> 58
ind ic 58
जोब स्रां 58
प्र ति 58
ग्ल ु 58
खै मोन।</w> 58
मोनसे नि</w> 58
आदार खौ</w> 58
स्त ेर 58
vari ed</w> 58
गोसार नानै</w> 58
eff ect 58
ey e</w> 58
जिराय खुलि 58
बायदि ।</w> 58
खुदिया फोरनि</w> 58
int estin 58
गामि याव</w> 58
बोथोर ा</w> 58
गोजौ वाव</w> 58
bas ic</w> 58
जायखि - 58
थिलि ।</w> 58
हते ल</w> 58
गिबि याव</w> 58
गलाय मोन 58
केनसार नि</w> 58
आंखा ल</w> 58
जेरै -</w> 58
दंफा ं</w> 58
lak es</w> 58
individ ual</w> 58
रुगु ं 58
shap ed</w> 58
report ed</w> 58
Nov ember</w> 58
Palac e,</w> 58
class ical</w> 58
Jamm u</w> 58
infl amm 58
beh ind</w> 58
स नानि</w> 57
त फोरनि</w> 57
ल ग 57
v ent 57
i ef 57
. D 57
क ारा 57
k y</w> 57
ु नि</w> 57
s '</w> 57
t ast 57
b igg 57
o es</w> 57
o thers</w> 57
- बा 57
g ing</w> 57
m erc 57
C ome</w> 57
5 6</w> 57
S rin 57
7 8 57
an al 57
in strum 57
था खुलि 57
er 's</w> 57
ar ily</w> 57
फोर -</w> 57
it is.	 57
en em 57
ला उ 57
बा - 57
सि नै</w> 57
बि बुं 57
बि याम 57
गा नाय</w> 57
बे गे 57
रा वनो</w> 57
बु ब्लि 57
गु जु 57
lo ver 57
et ing</w> 57
ag es,</w> 57
लाय ारि</w> 57
खालाम ग्रा</w> 57
pro duce</w> 57
नों थां 57
ter ms</w> 57
सार ा</w> 57
सं नाय 57
अन थाइ</w> 57
रे इल 57
Ch amb 57
जायगा निफ्राय</w> 57
fe ed 57
ari an</w> 57
car e 57
aus ol 57
bl end</w> 57
ult y</w> 57
ष् ट</w> 57
mar k</w> 57
सेर फां 57
Par k,</w> 57
man ag 57
beauti fully</w> 57
जिब ौ</w> 57
खाव नाय</w> 57
eng ue</w> 57
खाम फा</w> 57
food ,</w> 57
ban k</w> 57
गेले नाय</w> 57
कल हा 57
राहा खौ</w> 57
pan or 57
beg in</w> 57
fres h 57
orig in 57
Himalay as</w> 57
इं राज 57
reach ed</w> 57
intr icate</w> 57
handicraf ts</w> 57
खाम् फा 57
Var anas 57
आथो नारि</w> 57
सानजौ फु 57
2 3</w> 56
आ वनो</w> 56
स प् 56
र - 56
ल ोन 56
द खौ</w> 56
r am 56
d s.	 56
i ing</w> 56
क ट 56
n ess,</w> 56
l ay 56
s ens 56
ग ु</w> 56
ग नि</w> 56
प ति</w> 56
o ol 56
ड नि</w> 56
ज दि</w> 56
इ सोर 56
इ यु 56
’ t</w> 56
x i 56
5 - 56
S uch</w> 56
in di 56
जा खौ</w> 56
re cent 56
it t 56
it s.	 56
en po 56
ला ल</w> 56
बा इ</w> 56
बा नाय</w> 56
ou s,</w> 56
सा फ्रोमबो</w> 56
st age</w> 56
बि ल् 56
मा सि 56
दा बि 56
ic ient</w> 56
ac id</w> 56
बु र</w> 56
हो जा 56
मु सलि 56
ad op 56
ch ief</w> 56
un ivers 56
ev ol 56
iv ely</w> 56
सम खौ</w> 56
या न 56
सु लि 56
दाव राव 56
pro min 56
जौ खोन्दो</w> 56
दै दिमो 56
le ads</w> 56
su d 56
थाव नाय</w> 56
bu ild</w> 56
Indi a 56
माव थि</w> 56
gr av 56
par as 56
ता न</w> 56
पा कि 56
फै लाव</w> 56
ru ins</w> 56
pres ents</w> 56
bl e,</w> 56
जों खौ</w> 56
enc our 56
bo hydr 56
po int 56
acc ording</w> 56
caus ing</w> 56
stat us</w> 56
te ach 56
sec re 56
निफ्राय ,</w> 56
vill ages</w> 56
बेनि उनाव</w> 56
कि.मि. ,</w> 56
बुहुम नां</w> 56
exam ple</w> 56
region s</w> 56
आगो मा</w> 56
Gang a</w> 56
आरा म</w> 56
direc tly</w> 56
आबहा वा</w> 56
हेपा ताइ 56
सन् दे 56
influ ence</w> 56
recomm ended</w> 56
provid ed</w> 56
urb an</w> 56
vac ation</w> 56
sus p 56
coff ee</w> 56
Cal c 56
Ti bet 56
गले- गले</w> 56
मौ सु 56
atten tion</w> 56
cholester ol</w> 56
स ब 55
त ेरि 55
ा ,</w> 55
ह ि</w> 55
e 	 55
d e</w> 55
न लुथाय 55
ो ङै</w> 55
ग ारा 55
t end</w> 55
ख ्लाय 55
M ath 55
M ount 55
h all</w> 55
w est 55
ड ा</w> 55
ज ब्रा 55
H igh 55
D ist 55
N ear 55
इ न्दि 55
R ish 55
p tion</w> 55
’ ,</w> 55
S he 55
S ince</w> 55
T ir 55
P and 55
B and 55
औ वा</w> 55
घ न्टा</w> 55
in s,</w> 55
गो दो</w> 55
re ve 55
हा नायनि</w> 55
सि फाय 55
st ress</w> 55
बि दि</w> 55
बि हा</w> 55
बि खायाव</w> 55
बि फाव</w> 55
बे जे</w> 55
हो जादोंमोन।</w> 55
जि खु 55
गु वा 55
em ic</w> 55
गे देरसिन</w> 55
जे ब्ला 55
जे राव 55
e.	 बेयो</w> 55
दो गोन 55
sh if 55
जौ खोन्दो 55
मे लानि</w> 55
नु थायारि</w> 55
फु ट</w> 55
कि ल 55
राय ा</w> 55
थो ब 55
राज पु 55
ता ,</w> 55
अन थाइनि</w> 55
tre k</w> 55
br id 55
न्द ा</w> 55
car bohydr 55
बाहाय नायनि</w> 55
fo ot 55
भा र</w> 55
हाजो आव</w> 55
min im 55
rel ation 55
form er</w> 55
लामा फोरनि</w> 55
दावबायारि फोरनो</w> 55
बोसोर फोरनि</w> 55
रंजा थाव</w> 55
गान नाय</w> 55
दङ ,</w> 55
plac ed</w> 55
tow n,</w> 55
up per</w> 55
old er</w> 55
महारा सत्र 55
architect ure.	 55
अर गे 55
ra di 55
fru its,</w> 55
पार् क</w> 55
मस जिद 55
पुर निफ्राय</w> 55
Kol k 55
dro p</w> 55
partic ular</w> 55
थाया व,</w> 55
cle an 55
Ko zh 55
sand s</w> 55
नङ ै 55
near by</w> 55
हिमाल यनि</w> 55
Sik k 55
view s</w> 55
Destin ation</w> 55
मोदा इ 55
provid ing</w> 55
Gur u</w> 55
deter min 55
Uttaranch al</w> 55
antibi ot 55
actu ally</w> 55
Pak ist 55
लैक्ष ोन 55
Amrit s 55
2 9 54
ब न 54
y st 54
r ain</w> 54
c iv 54
. S 54
A shr 54
n et 54
n our 54
n ight 54
s es 54
ग ल 54
प ति 54
h ard 54
b ad</w> 54
ज ु</w> 54
( M 54
3 8</w> 54
D evel 54
p e</w> 54
उ दै</w> 54
S k 54
T ig 54
B re 54
जा होयो।</w> 54
गो लोम 54
it is,</w> 54
बा गान</w> 54
सि गार 54
जो हो 54
बि थोन</w> 54
ic e,</w> 54
ur ve 54
बु ङो।</w> 54
मि ननि</w> 54
हो जायो</w> 54
मु ङा</w> 54
बाय खोन् 54
ch .	 54
ch ance</w> 54
नो गाव</w> 54
ent er 54
सान खौ</w> 54
बार लां 54
का लि 54
फु त</w> 54
ले र</w> 54
ter rac 54
बुं फब 54
महर खौ</w> 54
es.	 बेयो</w> 54
राज खान्थि 54
पु ने 54
si ze</w> 54
we ak 54
रु ं 54
ग्रा ।</w> 54
ग्रा फोरखौ</w> 54
pe ac 54
fu n</w> 54
me et</w> 54
Mah al,</w> 54
fl our 54
rel ax</w> 54
hol ds</w> 54
mar v 54
po is 54
out .	 54
sur veillance</w> 54
सोलाय नो</w> 54
लैथो - 54
sm all 54
आदार ाव</w> 54
बिफा ं</w> 54
bel ong 54
बेरामि फोरा</w> 54
लिर नाय</w> 54
हादर सानि</w> 54
17 9 54
बायदि सिना</w> 54
dec l 54
dec reas 54
जाया ,</w> 54
maj estic</w> 54
inc idence</w> 54
जाहोन फोरा</w> 54
cer e 54
fol k</w> 54
सिनाय थि</w> 54
सिं ह 54
hill s,</w> 54
cour ty 54
बिगु रनि</w> 54
ore ,</w> 54
हाबाफारि नि</w> 54
Mal ay 54
sign s</w> 54
organ ized</w> 54
Pun e</w> 54
fri ed</w> 54
God dess</w> 54
थाख ै</w> 54
दबथाय नो</w> 54
मोदाय जो 54
seas on 54
perform ed</w> 54
lear n</w> 54
Dev i</w> 54
.सि . 54
खालामो ,</w> 54
गोग लै 54
contri bu 54
occas ion 54
दानखʼ नाय</w> 54
kilomet ers</w> 54
mean ing</w> 54
sof t</w> 54
enchant ing</w> 54
appropri ate</w> 54
Kozh ik 54
urve dic</w> 54
आ हार 53
आ खु</w> 53
र आ</w> 53
द ’</w> 53
d ic 53
i di 53
c ros 53
A D</w> 53
K am 53
l ess 53
s anc 53
s ),</w> 53
w a</w> 53
f ed</w> 53
g org 53
m ighty</w> 53
अ ंग 53
S um 53
भ ग 53
U j 53
at ra</w> 53
आर ब</w> 53
ला ब 53
al am</w> 53
मोन ा</w> 53
st ly</w> 53
st ations</w> 53
बि नो</w> 53
बि जि 53
ro l 53
ro ad.	 53
am i</w> 53
im pl 53
im pos 53
ंग ु</w> 53
लाय नो</w> 53
no thing</w> 53
ले क 53
ले ंख 53
पा इ 53
ne um 53
str ong 53
खर ङा</w> 53
mon it 53
नोगोर निफ्राय</w> 53
थै याव</w> 53
Mah at 53
भि टा 53
हाब था 53
An dh 53
सासे नि</w> 53
ob j 53
orn ed</w> 53
orn am 53
aff ect</w> 53
जाहोन ।</w> 53
requ ire</w> 53
सालाय नाय</w> 53
ung al 53
month s.	 53
equ ip 53
दिल्ल ी</w> 53
surround ing</w> 53
prev ent 53
सोमोनदो गोनां</w> 53
construc tion</w> 53
medic ines</w> 53
reduc ing</w> 53
pleas ure</w> 53
pregn ant</w> 53
wond erful</w> 53
स. आइ. 53
मेलेरि या</w> 53
Qu een</w> 53
minut es</w> 53
tin y</w> 53
Nil gir 53
mem ory</w> 53
रेस्ट ुरे 53
knowl edge</w> 53
Mas j 53
Ell ora</w> 53
Bik an 53
Calc utt 53
Devel op 53
4 4 52
स तु 52
स लʼ 52
ि ,</w> 52
ब लि 52
ब न्द</w> 52
म ेरि 52
ल क् 52
e .</w> 52
i y 52
c ov 52
क फि</w> 52
k ept</w> 52
ग ार् 52
ख साब 52
) .</w> 52
थ र</w> 52
M os 52
M ore</w> 52
M oh 52
w inter 52
3 6</w> 52
- माव 52
f ing 52
f illed</w> 52
D ak 52
D ut 52
m or 52
p ite</w> 52
S an 52
J ust</w> 52
T op</w> 52
P ol 52
ना म 52
ना लेंख 52
ar k 52
en h 52
en ic</w> 52
बा जि 52
st ,</w> 52
बि थां 52
बि था</w> 52
नि स 52
मि तार 52
न् नाय</w> 52
मु गा</w> 52
em ph 52
wh e 52
us ual</w> 52
iv ing</w> 52
रि ,</w> 52
ंग ्रि 52
खो ल</w> 52
In don 52
op h 52
su rely</w> 52
जु निया</w> 52
का ,</w> 52
राय ै</w> 52
se ems</w> 52
ast er</w> 52
str a 52
pe ak</w> 52
सुबुं फोर</w> 52
gre ater</w> 52
पे न 52
fl ora</w> 52
खाथि सिनथार</w> 52
St .</w> 52
pos itive</w> 52
po or</w> 52
peo ple,</w> 52
मोनसे याव</w> 52
गोसार द 52
सिम ।</w> 52
दिन्थि यो।</w> 52
दिहुन नाय</w> 52
होबथा नायनि</w> 52
fort un 52
cer em 52
increas ing</w> 52
lin ed</w> 52
lin ked</w> 52
यो ब्ला</w> 52
vacc ination</w> 52
खाबु फोर</w> 52
सायख ’ 52
pilgr im</w> 52
sil k</w> 52
divid ed</w> 52
मख जाथाव</w> 52
hon eymooners</w> 52
गोम जोर</w> 52
cat ch</w> 52
आखा इ 52
गवा लिय 52
ग् लि 52
trek k 52
prim ary</w> 52
गुसु ं</w> 52
tig er</w> 52
resist ance</w> 52
जर’ खायै</w> 52
बिथि ङाव</w> 52
Brah m 52
डायबे टि 52
कास् मी 52
degre e</w> 52
Indon es 52
4 6</w> 51
आ जा 51
आ ग्रा</w> 51
स ौ</w> 51
त आ</w> 51
ह ारा 51
म धु 51
a on</w> 51
r ar 51
r ing</w> 51
r hy 51
e ;</w> 51
c ro 51
क े</w> 51
क ायाव</w> 51
क ्रे 51
k ind 51
s an 51
s per 51
प न 51
) , 51
M ount</w> 51
w ent</w> 51
w ise</w> 51
3 . 51
f low</w> 51
f aun 51
m .	 51
R ec 51
p a 51
p ear 51
C an 51
5 4 51
5 6 51
S pan 51
ओ न् 51
ओ रै 51
V ic 51
th es 51
ना गा 51
जा थाव।</w> 51
था गोन।</w> 51
गो थै</w> 51
गो थो</w> 51
it ch 51
सि र 51
सि के 51
st up 51
बि दिनथि 51
बि दुं 51
मा - 51
दा थायनि</w> 51
थि नाय</w> 51
रा नि 51
ic s,</w> 51
ic es.	 51
is ol 51
as p 51
as si 51
जि ल्ल 51
pl at 51
pl ate 51
di ed</w> 51
tr aff 51
हाय ि</w> 51
से न् 51
e.	 बे</w> 51
फि थाय 51
li m</w> 51
जौ ये 51
मे नि 51
होन ् 51
सान से 51
लु र</w> 51
sp i 51
का प 51
ter ed</w> 51
हाद राव</w> 51
गाव निनो</w> 51
ति या</w> 51
ai m</w> 51
ell s</w> 51
खे ं 51
ph ot 51
min i 51
mar ks</w> 51
att y</w> 51
year ,</w> 51
लाइ फां 51
दिनथि फुं 51
जोन ोमनि</w> 51
सोमजि नाय</w> 51
सोमजि होयो।</w> 51
मोजां सिन</w> 51
वार ा</w> 51
स्रि नि</w> 51
सनदेर नाय</w> 51
खरं आ</w> 51
गुबुन मोनसे</w> 51
मिथिंग ा</w> 51
आला सि</w> 51
आथि ं</w> 51
मनदिर आ</w> 51
sug gest 51
ore s</w> 51
hou si 51
स्व र</w> 51
राजमह ल</w> 51
ओंखार नाय</w> 51
resp ir 51
valle ys</w> 51
गोरलै यैनो</w> 51
लांग ोन।</w> 51
beg ins</w> 51
beg inning</w> 51
लैखोन फोरा</w> 51
fast ing</w> 51
गाज्रि सिन</w> 51
grow ing</w> 51
इनजु र</w> 51
cam el</w> 51
reas on</w> 51
establ ish 51
Jai pur,</w> 51
मैगं - 51
खैफोद गोनां</w> 51
गाइ खेर 51
craf t 51
गोरोन ् 51
restaur ants</w> 51
industr ial</w> 51
thous and</w> 51
fav or 51
फ्राम बो</w> 51
mass ive</w> 51
तामि ल</w> 51
allow ed</w> 51
polit ical</w> 51
सावथु न</w> 51
memb ers</w> 51
mix ed</w> 51
Coch in</w> 51
spirit ual</w> 51
Joh n</w> 51
1 ,</w> 50
ब रा</w> 50
फ ्रा</w> 50
a the</w> 50
v ess 50
d ata</w> 50
A v 50
n er</w> 50
n ation 50
s ight</w> 50
t on</w> 50
थ ् 50
M eg 50
h op 50
b ord 50
b aza 50
3 6 50
3 7 50
- सम</w> 50
f ut 50
g at 50
N at 50
N ain 50
p ap 50
p add 50
L adak 50
S ab 50
O ot 50
E very</w> 50
ाय नि</w> 50
ना स 50
an xi 50
in hab 50
.	 बेनि</w> 50
er y.	 50
नाय नि 50
ला फोरनि</w> 50
ला ना</w> 50
ou s.	 50
al a,</w> 50
al ready</w> 50
हा - 50
or m 50
बि दा 50
बे कत 50
रा ण 50
नि या 50
ic h 50
बु ध् 50
थाय ो 50
us eful</w> 50
im e</w> 50
दे रा 50
गे स 50
गे व 50
सु र</w> 50
सु जु 50
ak ing</w> 50
सोर खारि</w> 50
दै ,</w> 50
सान दां 50
गोर ों</w> 50
le is 50
qu es</w> 50
per cent 50
per haps</w> 50
ot a</w> 50
par ty</w> 50
पा ल 50
pre vention</w> 50
थां नानै</w> 50
बाहाय जानाय</w> 50
बाहाय जायो।</w> 50
18 th</w> 50
mo tif 50
आय जें 50
गोख्र ैयै</w> 50
St ate,</w> 50
ight ly</w> 50
दावबायारि नि</w> 50
जारिमि न 50
prov ince</w> 50
childre n,</w> 50
cas es,</w> 50
थांखि या</w> 50
होनाय जों</w> 50
templ es,</w> 50
साम ब्रा 50
जाव नाय</w> 50
त् मा</w> 50
Ar ch 50
मोनदां नो</w> 50
serv es</w> 50
दिहुन नो</w> 50
सोरगिदि ं 50
बर निफ्राय</w> 50
बैसो गोरा</w> 50
आरिमु वारि</w> 50
फालांगि नि</w> 50
carv ings</w> 50
sim ply</w> 50
Mus eum 50
ke ep 50
typ ical</w> 50
गोबा ङै</w> 50
बिथा ङा</w> 50
एसे बां</w> 50
but ter 50
मोदा य</w> 50
sanctu ary</w> 50
person al</w> 50
rece ive</w> 50
मिउ जि 50
जब ्रा</w> 50
Mun n 50
आयुर बेदि 50
preserv ed</w> 50
गुसे ब</w> 50
Dal housi 50
बेले- बेजे 50
1 - 49
स ं</w> 49
त फोर,</w> 49
य ायाव</w> 49
y al</w> 49
y an</w> 49
e ight</w> 49
e ties</w> 49
d ot 49
c ar</w> 49
क ारि 49
K ing 49
s ay</w> 49
s low</w> 49
s ense</w> 49
t um 49
थ ’ 49
b loc 49
b ound 49
w ay.	 49
H epatitis</w> 49
f oot</w> 49
g an 49
R ed</w> 49
p ,</w> 49
p m</w> 49
उ न्दै</w> 49
C l 49
C am 49
G e 49
8 6 49
जा बाय 49
था ला 49
था बै</w> 49
ar ts</w> 49
at r 49
re tur 49
आर जाथाव</w> 49
खा जायाव</w> 49
बा हायो।</w> 49
हा ला 49
मोन दि</w> 49
सा फोरखौ</w> 49
st im 49
जो लै 49
गा थाव</w> 49
थि नो</w> 49
ic s.	 49
ati ves</w> 49
em bl 49
im ag 49
दे ल 49
सु इ 49
खु न्थि 49
लाय ो,</w> 49
res ort 49
खालाम गोन।</w> 49
जु रि 49
माव ख’ 49
सार जा 49
oo th 49
गाव खौ</w> 49
Ch ild</w> 49
ब्ला ं 49
ant s.	 49
बाहाय नाया</w> 49
खुं जानाय</w> 49
loo ks</w> 49
जौगा लु</w> 49
iz ing</w> 49
bo dies</w> 49
har m 49
खामानि या</w> 49
लाइ फां</w> 49
बायदि यै</w> 49
फाय ो</w> 49
pers ons</w> 49
थासारि नि</w> 49
आखाय लु 49
गोजौ आव</w> 49
गेजे राव 49
mat ter</w> 49
बारदेर ग्रा</w> 49
सोदो म 49
हाया ,</w> 49
नारसिन थाय</w> 49
meas les</w> 49
back waters</w> 49
level ,</w> 49
थाजि म 49
मोदाय जो</w> 49
केल रि 49
ins ul 49
श्र ी</w> 49
बेरे खायै</w> 49
fiel d</w> 49
ce il 49
Min ist 49
countri es.	 49
Fort ,</w> 49
hund reds</w> 49
Valle y</w> 49
conver ted</w> 49
थाम् फै 49
probab ly</w> 49
स क 48
स ्र 48
स ्ल 48
ब ं 48
ह रि 48
ल गाय 48
ै ।</w> 48
a es 48
i est</w> 48
i ron</w> 48
c in 48
c ep 48
न क 48
न सिम</w> 48
l aboratory</w> 48
t i</w> 48
t end 48
M ang 48
b ing</w> 48
ज थुम 48
- -</w> 48
- मा 48
H al 48
N av 48
m i</w> 48
m ah 48
m ach 48
अ राय</w> 48
S am 48
S ul 48
S im 48
S ri</w> 48
th ough 48
ना वनो</w> 48
an a,</w> 48
गो ग् 48
al tern 48
मोन थाय</w> 48
थि स</w> 48
सो नि</w> 48
ac compan 48
is es</w> 48
दि ग 48
दि से 48
el ec 48
मो सौ 48
ch arg 48
दों गो</w> 48
ab ad.	 48
ag o</w> 48
दे ंगु</w> 48
res idence</w> 48
मह ि 48
In f 48
um e</w> 48
होन ा</w> 48
qu al 48
qu art 48
qu ick 48
फु ंखा</w> 48
gr ound 48
ang a</w> 48
के फे 48
महर ा</w> 48
गोनां - 48
19 th</w> 48
ari a</w> 48
दान फोरनि</w> 48
आद बनि</w> 48
ग्ल े 48
बानाय जानाय</w> 48
गोहो गोरा</w> 48
iz es</w> 48
मानसि फोरखौ</w> 48
rec ord 48
dr am 48
tw ice</w> 48
लैथो गाथोन</w> 48
फिन नायनि</w> 48
infec tious</w> 48
रंजा नायनि</w> 48
15 6 48
समा ज</w> 48
हां - 48
खुदिया खौ</w> 48
जगाय नाय</w> 48
tran sport 48
tran sport</w> 48
liv ed</w> 48
Bh u 48
day s,</w> 48
बैसो गोरा 48
दुं ब्रु 48
del iv 48
बय जोंबो</w> 48
fol low</w> 48
mod er 48
जय साल 48
fer t 48
एइ स</w> 48
नायबिजिर नाया</w> 48
sw imm 48
भाइरा स 48
mos que</w> 48
जादों दि</w> 48
cor rec 48
sol u 48
महा त्मा</w> 48
Tour ist</w> 48
बेसेन गोसा</w> 48
spl end 48
eleph ant</w> 48
fiel ds</w> 48
heav y</w> 48
गोनो खो 48
dow n 48
expos ure</w> 48
earli er</w> 48
colon ial</w> 48
pregnanc y</w> 48
immedi ately</w> 48
Dis eas 48
urved a</w> 48
cru ise</w> 48
Kumb h</w> 48
lun ch</w> 48
जायखि- जाया</w> 48
decl ared</w> 48
Uj j 48
impos ing</w> 48
stim ul 48
4 9 47
स र</w> 47
त र 47
ब ी 47
म ण्ड 47
द ख 47
u n</w> 47
e ast 47
d ol 47
i ans</w> 47
क जि 47
न फोराव</w> 47
A .D 47
K ott 47
K ull 47
n early</w> 47
l ying</w> 47
s al</w> 47
s ).	 47
प ेर 47
थ ब्ल 47
M y 47
b il 47
3 ,</w> 47
f at 47
N ative</w> 47
Y og 47
ए ना 47
R T 47
L aboratory</w> 47
ङ ैनो</w> 47
S und 47
G P</w> 47
B l 47
B et 47
B each</w> 47
I I</w> 47
8 5</w> 47
ण ा 47
7 7 47
U S 47
in scri 47
जा पा 47
जा गासिनो</w> 47
जा नांगोन।</w> 47
ar tic 47
फोर बादि</w> 47
re - 47
re turn</w> 47
खा नथि</w> 47
हा व 47
मोन नाया</w> 47
सा धु 47
सि नो</w> 47
st ory</w> 47
जो ङै</w> 47
गा नथि 47
मा फोर</w> 47
मा लि 47
बे दर 47
हो दों</w> 47
जि - 47
जि ला</w> 47
गु ननि</w> 47
ad m 47
ol ic</w> 47
em eral 47
lo st</w> 47
नो - 47
ent er</w> 47
खो मा</w> 47
res our 47
दो होर 47
खालाम जायो।</w> 47
pro por 47
le ad 47
sp ac 47
sp ent</w> 47
का समि 47
फु रायै</w> 47
माव खुलि 47
साब सिन।</w> 47
खि साव 47
नांग ोन,</w> 47
pe ace</w> 47
aw are</w> 47
नै सो</w> 47
गथ फोरा</w> 47
ail ing</w> 47
खुं नायनि</w> 47
खुं थायनि</w> 47
खुं गिरि</w> 47
enc ies</w> 47
cent res</w> 47
bo ats</w> 47
her e,</w> 47
km s,</w> 47
हाब नो</w> 47
templ es.	 47
धोरोम - 47
hear t.	 47
कार ा</w> 47
कार पे 47
महारा स्त्र 47
fort .	 47
खरं ,</w> 47
Bh aw 47
food s,</w> 47
gu ide</w> 47
del ight 47
मन्दिर फोरनि</w> 47
199 0 47
rang es</w> 47
नेरसोन खामफा 47
जोथोन नि</w> 47
धा तु 47
भाइरा स</w> 47
Pro v 47
health .	 47
सै थो 47
राइ जो</w> 47
गिबि सिन</w> 47
reas ons</w> 47
जेंना फोर</w> 47
बेसा द</w> 47
level .	 47
reduc ed</w> 47
थों जोङै</w> 47
diet .	 47
अब स् 47
influ enz 47
programm es</w> 47
reach es</w> 47
ge ograph 47
बालाहा मानि</w> 47
mou th</w> 47
sci enti 47
squ are</w> 47
सिबा जि</w> 47
run s</w> 47
Koch i</w> 47
prepar ed</w> 47
त्राइ बेल</w> 47
Ahmed abad</w> 47
जेथो गोनां</w> 47
alco hol 47
tuberculos is</w> 47
हों गो 47
furn it 47
mic ro 47
जुदि बो</w> 47
Push kar</w> 47
सिखि त 47
Mahat ma</w> 47
Andh ra</w> 47
Kull u</w> 47
आ र</w> 46
स फै 46
ब ’ 46
म ारि 46
a '</w> 46
r ab 46
क ौ</w> 46
A ,</w> 46
k k 46
k ar 46
l ,</w> 46
s etting</w> 46
ग गा- 46
t abl 46
h .	 46
b at 46
b ul 46
( P 46
N ow</w> 46
ए क्स 46
इ म 46
इ जि 46
इ लि 46
R el 46
L eg 46
अ क् 46
B as 46
F am 46
F ate 46
8 5 46
an 's</w> 46
जा होनाय</w> 46
था ,</w> 46
था नानै</w> 46
er ies</w> 46
re fined</w> 46
सा ना</w> 46
बि थांखि</w> 46
बि सम् 46
बे जों</w> 46
es e,</w> 46
सो दां 46
ti red</w> 46
am es</w> 46
फा र</w> 46
लि ंग 46
ारि फोरा</w> 46
ig or 46
id ing</w> 46
ag ric 46
सम फोराव</w> 46
con flu 46
ing ed</w> 46
oun c 46
बां होनो</w> 46
गाय ारि</w> 46
ंख ्ला 46
थाव नायै</w> 46
मान खो 46
for c 46
cl ust 46
मिथि जानाय,</w> 46
सिन ,</w> 46
खौ ,</w> 46
pre - 46
00 0 46
fo ster</w> 46
खुं थाय</w> 46
इन फ्लु 46
मानसि फोर</w> 46
St ates</w> 46
do or</w> 46
entr ance</w> 46
सिम ,</w> 46
exc ur 46
exc iting</w> 46
tow n 46
10 - 46
liv es</w> 46
लाखि नाय</w> 46
सिबि नाय</w> 46
art ment</w> 46
stre ets</w> 46
बाला बारि 46
Mar ch</w> 46
मोन् दि 46
मोदोम - 46
sug ar,</w> 46
believ e</w> 46
सै ।</w> 46
जादों -</w> 46
सिमा ं 46
मेल निउत्रि 46
नेम बादि</w> 46
exam ple,</w> 46
breath taking</w> 46
lim ited</w> 46
flow ers</w> 46
बाथ ्रा</w> 46
इसे ल’ 46
requi re 46
drin king</w> 46
सोब खां 46
continu es</w> 46
cott on</w> 46
इउर पि 46
माखासे या</w> 46
सुबि दा</w> 46
diabet es</w> 46
chick enpo 46
extre m 46
दिदो म</w> 46
administ r 46
langu age</w> 46
नारेंख ल</w> 46
common ly</w> 46
poli o</w> 46
Karnatak a</w> 46
leuk em 46
Octo ber</w> 46
transmis sion</w> 46
गमा माय 46
सानफ्रोम बोनि</w> 46
vibr ant</w> 46
Rish ik 46
craft sm 46
agric ult 46
र म 45
र ं</w> 45
ब त 45
ह ज 45
म जों</w> 45
य ि</w> 45
a ig 45
e k</w> 45
d ur 45
क रा 45
न दु 45
n ut 45
t ell</w> 45
ख ना 45
b one</w> 45
3 9 45
- खालामनो</w> 45
f ash 45
N ot</w> 45
ए फ 45
इ मिउ 45
p .	 45
च ु 45
च ौ 45
उ थ्रि 45
ट ्रि 45
L at 45
S ea</w> 45
J ew 45
O f</w> 45
E ach</w> 45
7 6 45
U .S 45
an sw 45
जा दोंमोन 45
er - 45
at ed,</w> 45
नाय जे 45
it e,</w> 45
बा दाम 45
हा बो</w> 45
सा ला 45
सि ल् 45
st aying</w> 45
मा ।</w> 45
रा साय 45
is ing</w> 45
el abor 45
हो बाय।</w> 45
pl ains</w> 45
मु कु 45
बाय ाव</w> 45
ad ult 45
ch est</w> 45
ारि - 45
ag o 45
सम निफ्राय</w> 45
सु ख 45
con junc 45
ex tra</w> 45
sh ould 45
pro sper 45
फि साय 45
का ना 45
फु ं</w> 45
फु रा</w> 45
gr an 45
ति सनि</w> 45
गोसो नि</w> 45
Ch ow 45
गोनां थिखौ</w> 45
गिरि जों</w> 45
ङा नो</w> 45
हादोर गेजेरारि</w> 45
थां ।</w> 45
थां ना 45
inf ants</w> 45
हाजो मा</w> 45
bre ast</w> 45
cent ers</w> 45
ess es</w> 45
ser ies</w> 45
ेरि या 45
खाथि खा 45
rel atively</w> 45
भि ,</w> 45
diseas e,</w> 45
जारिमि नाव</w> 45
har ,</w> 45
prov ed</w> 45
ment s,</w> 45
cap ac 45
जिउ खौ</w> 45
जिराय नो</w> 45
समा ज 45
add itional</w> 45
.ए स. 45
नाया ,</w> 45
go od 45
maj ority</w> 45
aff ects</w> 45
दानख नाय</w> 45
गोसोखां थाव</w> 45
canc er.	 45
मुंदांखा ,</w> 45
मोन् नाय</w> 45
wom an</w> 45
div ine</w> 45
Mus lim</w> 45
फोनांजाब नाय</w> 45
beg an</w> 45
आथिखा लनि</w> 45
medic ine</w> 45
उफ ्रा</w> 45
बेराय नो</w> 45
गोम ो</w> 45
test s</w> 45
किलʼ मिटार 45
AID S 45
चे न् 45
becom ing</w> 45
मोनाबि लि</w> 45
coast al</w> 45
में नाय</w> 45
Pan hal 45
Mahab al 45
Mahab har 45
individu als</w> 45
nerv ous</w> 45
bes ides</w> 45
dest roy 45
dou b 45
pract ice</w> 45
lym ph 45
appe ar</w> 45
acces sible</w> 45
bladd er</w> 45
panor amic</w> 45
recent ly</w> 45
हेपाताइ तिस</w> 45
Dist ric 45
जिखु नु 45
cov ers</w> 45
stra ight</w> 45
2 50</w> 44
4 - 44
र फोरनि</w> 44
ब ,</w> 44
ह ु</w> 44
म हाबा 44
d ress 44
i pl 44
c all</w> 44
c ure</w> 44
c rit 44
. / 44
क थाब 44
न आव</w> 44
A t 44
k al 44
K od 44
n ose</w> 44
l ist</w> 44
s - 44
s :</w> 44
h ur 44
w ear 44
w ay,</w> 44
- दौ 44
f ever,</w> 44
g ain</w> 44
m er,</w> 44
5 . 44
अ क्सि 44
भ ाय 44
O ff 44
B ah 44
6 5 44
ना ङा</w> 44
जा थावना</w> 44
.	 ' 44
था द 44
at tem 44
re v 44
बा जा</w> 44
or am</w> 44
गा य</w> 44
दा ,</w> 44
दा क 44
ro ad 44
नि खौ</w> 44
नि जोर 44
जाय फोरखौ</w> 44
बु ङो</w> 44
मि तार</w> 44
Th ough</w> 44
am ong 44
मु वाया</w> 44
di stri 44
बो दों।</w> 44
ad es</w> 44
ab ode</w> 44
ev ent 44
खु गा 44
con trac 44
pro long 44
and er</w> 44
दै मायाव</w> 44
सान थ्रि 44
ov en</w> 44
bu d 44
माय थायनि</w> 44
ता ल</w> 44
पु रि 44
str ug 44
रे स्त 44
मिथि जानाय।</w> 44
जाब ्र 44
tim es,</w> 44
tim es.	 44
ind eed</w> 44
mon so 44
हर नो</w> 44
low - 44
mo re.	 44
inter i 44
inter ven 44
co ast</w> 44
ख्रु इ</w> 44
to - 44
कि. मि</w> 44
थोर फो 44
हम नो</w> 44
आइ , 44
जागाय नाय</w> 44
गनाय नाय</w> 44
मोनदां थि</w> 44
बिसोर हा</w> 44
treat ment.	 44
मोजां - 44
ob t 44
app et 44
pic k</w> 44
गेले मु 44
जय पुर</w> 44
stre am</w> 44
ju ices</w> 44
लों नाय</w> 44
मस ला</w> 44
complet ed</w> 44
beach es,</w> 44
भाइरा सा</w> 44
ext ensive</w> 44
Rajasth ani</w> 44
बेंख न</w> 44
ank ar 44
बिदि नथि</w> 44
गोहोम - 44
आयजो फोरनि</w> 44
prot ect</w> 44
diet ,</w> 44
show s</w> 44
आखा इ</w> 44
हाउ स</w> 44
emo tional</w> 44
श् व 44
def ici 44
bacter ia</w> 44
Ak bar</w> 44
reli ev 44
prote in</w> 44
qui et</w> 44
लण्ड ननि</w> 44
Oriss a</w> 44
contri but 44
piec e</w> 44
lux ur 44
Chenn ai</w> 44
slow ly</w> 44
Thir uv 44
great est</w> 44
शिल् प 44
quart ers</w> 44
ि ।</w> 43
ि नि</w> 43
त आव</w> 43
त ्राय 43
ा व 43
ल ारा 43
द र</w> 43
u ous</w> 43
i k</w> 43
c it 43
क फि 43
न ता</w> 43
n al</w> 43
ग नाय</w> 43
t e</w> 43
b h 43
b ook</w> 43
w aste</w> 43
ज दि 43
D iv 43
ए ले 43
m ood</w> 43
m ess 43
च ार 43
उ जि 43
L ook</w> 43
5 7 43
अ र् 43
अ क्ट 43
W ar</w> 43
J al 43
J ab 43
G .</w> 43
T e 43
B ol 43
E r 43
in er 43
नाय फोरजों</w> 43
मोन नि</w> 43
सा स</w> 43
सा मु 43
st .	 43
सो खा 43
दि प</w> 43
दि या</w> 43
ti fied</w> 43
मि नि</w> 43
जि ,</w> 43
मो गा- 43
ch er 43
tr u 43
em peror</w> 43
lo g 43
im prove</w> 43
रि ंगा 43
सु दे 43
सु ला</w> 43
सोर बा</w> 43
खो लो 43
est y 43
दावबाय फालांगि</w> 43
sp ice</w> 43
फु वार 43
par ent</w> 43
ति . 43
पु न 43
पु ष्टि 43
si z 43
थु बुर</w> 43
सं रैखा</w> 43
गोनां सिन</w> 43
ri es</w> 43
mon soon</w> 43
ath ,</w> 43
न्द नि</w> 43
नोगोर ।</w> 43
प्र टि 43
pu bl 43
बानाय नो</w> 43
cont am 43
ition ,</w> 43
child ’s</w> 43
child hood</w> 43
धोर ोमनि</w> 43
childre n 43
हाब ग्रा</w> 43
खन ले</w> 43
des er 43
बेरामि फोरनि</w> 43
खमाय ो।</w> 43
थाखाय नो</w> 43
olog y,</w> 43
द् ध</w> 43
trad ition</w> 43
cult ure,</w> 43
ens ure</w> 43
फालि नाय</w> 43
आला सि 43
गुफु ं</w> 43
sub - 43
met al</w> 43
बेनि - 43
Go d</w> 43
नायहै नायनि</w> 43
सिकित साया</w> 43
Mal ab 43
commun icable</w> 43
cover ing</w> 43
जुना रनि</w> 43
रुजु नायाव</w> 43
cle an</w> 43
pot at 43
water falls</w> 43
मैगं फोर</w> 43
men ing 43
Com mun 43
pain ted</w> 43
vegetabl es,</w> 43
drin k</w> 43
opportun ities</w> 43
उत्त रा 43
recomm end 43
every thing</w> 43
prec ious</w> 43
head ach 43
sculpt ures</w> 43
Asi a</w> 43
tradition s</w> 43
Gard en</w> 43
Ass am</w> 43
Chur ch</w> 43
Chh at 43
Kon k 43
हेपाटाइटि स- 43
introduc ed</w> 43
जम् मु</w> 43
sex ual</w> 43
Ind ore</w> 43
मोगा मोगि</w> 43
Baza ar</w> 43
Indo - 43
preval ence</w> 43
कुम् भ</w> 43
bigg est</w> 43
Near est</w> 43
net work</w> 43
Vic tor 43
among st</w> 43
4 9</w> 42
आ दि 42
स वा 42
ा बो</w> 42
म ट 42
द से</w> 42
r ail</w> 42
v an 42
e m</w> 42
. 	</w> 42
K ed 42
K ut 42
n ine</w> 42
l an 42
ग ला</w> 42
t all</w> 42
t arg 42
ख ्रा</w> 42
M ur 42
M other</w> 42
h ang 42
h ost</w> 42
b on 42
w an 42
( a</w> 42
- खु 42
- दाव 42
f ight</w> 42
g row</w> 42
N est 42
ए सियानि</w> 42
इ मि 42
m es 42
च ार् 42
L it 42
L et</w> 42
अ ना 42
B oth</w> 42
th at,</w> 42
in ate</w> 42
in spir 42
in stitu 42
जा सिम</w> 42
था द’ 42
ar s,</w> 42
ar ound 42
re ac 42
नाय थावना</w> 42
it age</w> 42
खा ङो।</w> 42
हा नाय 42
सि , 42
st res 42
जो ख्ल 42
बि लाइ</w> 42
गा खोन 42
दा थाया</w> 42
ro m 42
ro of 42
जाय फोरनि</w> 42
ur i</w> 42
थाय फोरजों</w> 42
मि थि</w> 42
न् ता</w> 42
जि ं</w> 42
गु मु 42
di e</w> 42
ch emo 42
गि थाव</w> 42
tr ade</w> 42
lo d 42
सम सिम</w> 42
ंग ायाव</w> 42
sh are</w> 42
pro ject</w> 42
ear th</w> 42
ot s</w> 42
नु जायो</w> 42
फु न 42
दु खु</w> 42
राज फोलेरनि</w> 42
ख्र ै</w> 42
ne l</w> 42
सं नायनि</w> 42
dis covered</w> 42
रु नाय</w> 42
जायगा फोरखौ</w> 42
थां नायनि</w> 42
car ro 42
नोगोर मा</w> 42
pr aw 42
सुबुं खौ</w> 42
me al</w> 42
me at</w> 42
बानाय ो।</w> 42
cont ain</w> 42
हर ो।</w> 42
mo stly</w> 42
गोख्र ोङै</w> 42
St ations</w> 42
जायगाय ावनो</w> 42
fac ts</w> 42
हेफा थाय 42
sit ting</w> 42
are a,</w> 42
vari eties</w> 42
infec tion.	 42
infec tion,</w> 42
larg er</w> 42
India.	 भारताव</w> 42
pal m</w> 42
हां बोनाय 42
जिब ख्रि</w> 42
गोजौ सिन</w> 42
थान सालि</w> 42
adv ant 42
बिबां खौ</w> 42
गोमो थाव 42
सावगारि फोर</w> 42
साह स 42
progr am</w> 42
star ts</w> 42
star ting</w> 42
बुहुम नाङै</w> 42
pass es</w> 42
जान थायाव</w> 42
interest ed</w> 42
sand stone</w> 42
बृ टि 42
fri ends</w> 42
suppl ement 42
खोला हा</w> 42
palac es,</w> 42
flu id</w> 42
mov ement</w> 42
बेसेन गोनां</w> 42
cir cul 42
गोरोन थि</w> 42
फिनजा थाय</w> 42
उरि ष् 42
prog ress</w> 42
Dr ive</w> 42
system .	 42
transm itted</w> 42
Air port</w> 42
there fore</w> 42
environ ment</w> 42
अख्रा ं</w> 42
आज मि 42
fre ed 42
lung s</w> 42
identi f 42
बिरदिङा गाथोन 42
peak s</w> 42
const ip 42
ae ological</w> 42
Punj ab</w> 42
Mel a</w> 42
depres sion</w> 42
Bharat pur</w> 42
Jodh pur</w> 42
diarrho e 42
Festiv al</w> 42
parad ise</w> 42
Chandi garh</w> 42
Febr uary</w> 42
exclus ive</w> 42
मखʼ जाथाव</w> 42
origin ally</w> 42
Varanas i</w> 42
भग बान</w> 42
neum on 42
Develop ment</w> 42
emeral d</w> 42
जोख्ल ोब 42
9 5 41
4 ,</w> 41
4 1</w> 41
आ ख 41
स ’ 41
स ता 41
त ु</w> 41
त खौ</w> 41
म े</w> 41
म ’ 41
a ud 41
r uc 41
v om 41
d a</w> 41
d i</w> 41
c ost</w> 41
क ौ 41
क ेर 41
n ight.	 41
s e.	 41
s ides</w> 41
s aint</w> 41
ग वा</w> 41
ग ल् 41
ख ारि 41
) नि</w> 41
b ath</w> 41
b ility</w> 41
b order</w> 41
o es,</w> 41
3 9</w> 41
g est</w> 41
m ang 41
R em 41
R ang 41
p as 41
p ine</w> 41
उ दाय 41
C anc 41
ङ ोब्ला</w> 41
अ ब्लाबो</w> 41
j ungle</w> 41
G ul 41
G overn 41
V ir 41
P ati 41
F o 41
F ood</w> 41
8 , 41
th at 41
गो लै 41
गो थो 41
at op</w> 41
re pe 41
it iner 41
on set</w> 41
ला बोनो</w> 41
खा न 41
ou d</w> 41
al pur</w> 41
मोन है 41
मोन दों।</w> 41
सि ब 41
जो ंख्ला 41
गा ग 41
मा स</w> 41
मा लाय 41
मा हारि 41
बे क्ट 41
दा जानाय</w> 41
दा सिम</w> 41
दि न 41
om ,</w> 41
om n 41
हो ,</w> 41
ec tions</w> 41
ad ren 41
ch all 41
दों से</w> 41
गि लिर</w> 41
tr ic</w> 41
us ion</w> 41
id ent</w> 41
से ब 41
से ं 41
से प् 41
ev al</w> 41
ev ent</w> 41
जे सेबां</w> 41
ंग ्लि 41
खालाम दोंमोन</w> 41
li qu 41
सान बो 41
ow ever</w> 41
थाव नाय 41
लो ब् 41
दु म 41
बुं जानाय</w> 41
बुं फुर 41
पु रि</w> 41
पा ट 41
सोल ेर 41
गिरि फोर,</w> 41
fe el 41
fe atures</w> 41
aw ay.	 41
ach ,</w> 41
pre fer 41
हादोर सायाव</w> 41
ari ,</w> 41
हाम सिन</w> 41
child 's</w> 41
हर नाय</w> 41
ष् टे 41
har mon 41
सोलाय सोल 41
Raj put</w> 41
km )</w> 41
फाहाम नाय</w> 41
मुवा खौ</w> 41
हार सि 41
ment s.	 41
आइ जो 41
होनाय ।</w> 41
war ,</w> 41
बादि ,</w> 41
गथ’ फोर</w> 41
बिफा ं- 41
बायदि - 41
high - 41
ful .	 41
ob serv 41
dep ending</w> 41
फोरबो खौ</w> 41
मिरु ,</w> 41
गोजौ नि</w> 41
दुं खां 41
anti - 41
जानाय निफ्राय</w> 41
gu est 41
histor y.	 41
mal nutrition 41
Mar k 41
sion ,</w> 41
leg end</w> 41
हान था 41
conn ect</w> 41
mis es</w> 41
bus y</w> 41
shr ines</w> 41
दिप नि</w> 41
fast ,</w> 41
आमेरि कानि</w> 41
आमेरि कान</w> 41
आयजो फोरा</w> 41
back wat 41
water fall 41
reduc tion</w> 41
केल रि</w> 41
der ived</w> 41
Nag al 41
tod ay,</w> 41
ब्रि तिस</w> 41
बेरे खा</w> 41
Har y 41
benef it</w> 41
vitam ins</w> 41
ston es</w> 41
mountain s,</w> 41
गसा इ</w> 41
AD .	 41
Gand hi 41
bath ing</w> 41
func tion</w> 41
func tion 41
hun ting</w> 41
defin itely</w> 41
रांखा न्थि 41
syn dro 41
descri bed</w> 41
सम्रा त</w> 41
independ ence</w> 41
hund red</w> 41
Dar je 41
extre me</w> 41
थै- रोदा 41
2- 3</w> 41
jun gl 41
purpos e</w> 41
Tod ay,</w> 41
Septem ber</w> 41
हाथि यार 41
spraw ling</w> 41
जिल्ला नि</w> 41
promin ent</w> 41
स.आइ. भि 41
Masj id</w> 41
Span ish</w> 41
favor ite</w> 41
Fate h 41
extrem ely</w> 41
जिखुनु जा</w> 41
आ पे 40
र न</w> 40
त ाय 40
त फोरा</w> 40
त ्रा</w> 40
म ज 40
म न</w> 40
द ल 40
द - 40
द रा 40
c ough 40
l eng 40
l ung</w> 40
ो दि</w> 40
s q 40
s aw</w> 40
t .</w> 40
ख नि 40
M emor 40
b our 40
ज खा 40
H ouse</w> 40
g ave</w> 40
N and 40
ए . 40
इ ल</w> 40
m ausol 40
R est 40
p ay 40
L ater</w> 40
अ मा</w> 40
S ol 40
S ee</w> 40
S anchi</w> 40
O ld</w> 40
P atn 40
ना र</w> 40
ना थाय,</w> 40
in hal 40
जा नायजों</w> 40
.	 गोबां</w> 40
er os 40
re s,</w> 40
नाय नाया</w> 40
en - 40
ला न 40
बा लानि</w> 40
al i,</w> 40
बि का 40
मा ख 40
मा लाया 40
दा हार 40
दा इन</w> 40
ro ad,</w> 40
नि थाखाय</w> 40
el ed</w> 40
फो लेर</w> 40
थाय सिम</w> 40
मि . 40
Th ris 40
am oun 40
मो ब्लि 40
मो सौ</w> 40
दों ब्ला</w> 40
गि नाय</w> 40
tr ou 40
tr uly</w> 40
ag ar,</w> 40
रि सिके 40
no v 40
स् लि 40
दं दि</w> 40
दै खां 40
होन ो 40
सान फोराव</w> 40
सान जायारि</w> 40
ain .	 40
नु थाया</w> 40
खाय फा</w> 40
मान खोन 40
ep t 40
ter .	 40
सार नाय</w> 40
बै सोर</w> 40
गोसो आरि</w> 40
wor ked</w> 40
we ight.	 40
रे सतु 40
br ings</w> 40
mon aster 40
थां ना</w> 40
car n 40
ru g 40
col os 40
18 7 40
प्र फे 40
ph il 40
ect ed.	 40
जौगा नायखौ</w> 40
po ints</w> 40
fac t,</w> 40
दावबायारि फोर</w> 40
sur pris 40
फाहाम नो</w> 40
gl ac 40
सेर फा 40
आदार फोरखौ</w> 40
enti c</w> 40
बिफा ंनि</w> 40
केरे लाया</w> 40
फोरमाय थि</w> 40
17 8 40
trad ing</w> 40
attrac tive</w> 40
so ,</w> 40
dep os 40
थाखो खौ</w> 40
numb ers</w> 40
pic k 40
नाया नो</w> 40
old en</w> 40
खरं फोर</w> 40
sec ond 40
art ,</w> 40
199 9 40
मार बल</w> 40
produc tion</w> 40
rul er</w> 40
मुलै फोर</w> 40
सामलाय नो</w> 40
दैदेन ो।</w> 40
month s,</w> 40
साह सि 40
cho ose</w> 40
आनजाद - 40
राजमह लनि</w> 40
saf ar 40
long - 40
see m</w> 40
you .	 40
जुनार फोरनि</w> 40
मुलाम ् 40
rap id 40
Per si 40
self - 40
occu p 40
Aurang z 40
Mumbai .	 40
गोरबो याव</w> 40
lear ning</w> 40
Pur i</w> 40
बालाहा मा</w> 40
god dess</w> 40
dow n.	 40
spot s</w> 40
travel ers</w> 40
displ ay</w> 40
गेजेरा वनो</w> 40
राइजो नि</w> 40
cy cle</w> 40
identi fied</w> 40
curren t</w> 40
attach ment</w> 40
delic ious</w> 40
बिन दो 40
Ter rit 40
Bhop al</w> 40
wit ness</w> 40
Nad u</w> 40
एइस , 40
glo bal</w> 40
Tre at 40
stro k 40
atmosph ere</w> 40
Don 't</w> 40
typh oid</w> 40
manag ement</w> 40
Tibet an</w> 40
कजि क 40
Kott ay 40
इमिउ नायजे 40
distri bu 40
chall eng 40
रेसतु रे 40
आ लु 39
आ ग्रा 39
फ ं 39
फ रा 39
म ग 39
r ag 39
v ul 39
d ating</w> 39
c over</w> 39
c ogn 39
. उ 39
क आ</w> 39
K ul 39
l or 39
l es.	 39
ग स 39
ग लाय</w> 39
ग राय</w> 39
t ol 39
प ्रा 39
व ि 39
M arch 39
h a 39
h ence</w> 39
o or</w> 39
ज ्ला</w> 39
( 16 39
g ur 39
g ast 39
N ep 39
ए स</w> 39
m ist 39
p ac 39
p av 39
उ दा 39
C av 39
L ah 39
S ec 39
S af 39
J ava</w> 39
भ व 39
V ishn 39
T ar 39
T ry</w> 39
I g 39
था थाय</w> 39
था दोंमोन।</w> 39
ोन ो</w> 39
फोर ो</w> 39
गो थाव 39
गो लां 39
गो दाय 39
at or 39
at es,</w> 39
re d 39
on e's</w> 39
en s.	 39
ला नायाव</w> 39
al low</w> 39
हा सार 39
सा नाय,</w> 39
सि नाव</w> 39
सि मानि</w> 39
सि खार 39
सि मायाव</w> 39
or ing</w> 39
बि गियान</w> 39
दा लाय 39
नि उ</w> 39
दि या 39
el s,</w> 39
जि ंगा</w> 39
मो गि 39
ad ed</w> 39
ad ver 39
गि लु 39
wh om</w> 39
से थि</w> 39
ir a</w> 39
con tr 39
con qu 39
दो होन 39
स् ति 39
गाय ो।</w> 39
op ened</w> 39
मे न्ट</w> 39
su itable</w> 39
qu ar 39
थाव नायखौ</w> 39
रो दा</w> 39
कि ं</w> 39
मान नि</w> 39
all .	 39
wor ship</w> 39
he at</w> 39
गोजा ं 39
ud d 39
क् सि</w> 39
हादोर फोरनि</w> 39
de er</w> 39
न्द ्र 39
नोगोर फोरनि</w> 39
नोगोर मानि</w> 39
टा नि</w> 39
खुं जायो।</w> 39
comm emor 39
child .	 39
eg g 39
mus cle</w> 39
form ul 39
att ac 39
फे जेन 39
फोरा व 39
मोनसे ,</w> 39
नद ्रा 39
मुवा ,</w> 39
ho l</w> 39
थांखि थिलि 39
गोसार ो।</w> 39
land .	 39
air port 39
row n</w> 39
treat ment,</w> 39
cons ist 39
emb ell 39
ob es 39
जगाय नो</w> 39
sou th 39
wal king</w> 39
मन्दिर ।</w> 39
बिलो आ</w> 39
बिमा फोरा</w> 39
बिमा -बि 39
enjo y 39
veget arian</w> 39
Un ivers 39
mis sion</w> 39
beach ,</w> 39
लाबो नाय</w> 39
beaut y.	 39
प्रदेश ाव</w> 39
advent ur 39
आथिं - 39
बेर नाय</w> 39
साबना - 39
हाये न</w> 39
prot ection</w> 39
फिथाइ फोर</w> 39
pot ential</w> 39
खोला - 39
बिथा ंनि</w> 39
show ed</w> 39
Lak e,</w> 39
sleep .	 39
work ers</w> 39
dem on 39
wid ely</w> 39
HIV - 39
plan ned</w> 39
घन ता 39
Gan esh</w> 39
Afric a</w> 39
बुमिन सार 39
auth entic</w> 39
Cor por 39
जर’ खा</w> 39
aem ia</w> 39
lux ury</w> 39
Punj ab 39
refer red</w> 39
comfort able</w> 39
Gar h 39
मोदान नाय</w> 39
yel low</w> 39
legend ary</w> 39
Koll am</w> 39
glor ious</w> 39
पाकि स्ता 39
civ il 39
बायखोन् दा</w> 39
rhy th 39
padd y</w> 39
conflu ence</w> 39
obt ained</w> 39
Malab ar</w> 39
mes mer 39
freed om</w> 39
4 4</w> 38
स ʼ 38
ा ।</w> 38
a c</w> 38
r al</w> 38
e ous</w> 38
क ह 38
क ʼ 38
क ाव</w> 38
k ill 38
h u</w> 38
b ungal 38
w ash 38
w ind</w> 38
w ife</w> 38
w oven</w> 38
ज खानि</w> 38
3 1 38
- खा 38
- खालामनाय</w> 38
H igh</w> 38
f ill</w> 38
g ate</w> 38
ए द् 38
R am</w> 38
उ नथि 38
5 8 38
ङ ै 38
अ ब</w> 38
S ome 38
G o</w> 38
E astern</w> 38
8 - 38
? 	 38
घ ि 38
th ought</w> 38
ना त 38
ना इ</w> 38
जा है 38
था खौ</w> 38
ार नि</w> 38
ar y 38
ar thr 38
गो थां 38
at ors</w> 38
at ric 38
ला बाय 38
खा लि</w> 38
हा नथि 38
सा उ 38
सि न् 38
सि रि</w> 38
st ar</w> 38
बि जों</w> 38
बे रि 38
दा म</w> 38
is e,</w> 38
दि . 38
दि न</w> 38
फो थार</w> 38
थाय गोनां</w> 38
मु गा 38
मु ङाव</w> 38
गु रै 38
ad ults</w> 38
ad orned</w> 38
tr ains</w> 38
wh el 38
et ed</w> 38
ent h</w> 38
सम ।</w> 38
दाव राव</w> 38
दाव हार 38
खो लायारि</w> 38
ing ing</w> 38
बां होयो।</w> 38
फि क</w> 38
मे लाया</w> 38
सान से</w> 38
गोर ो 38
le ase</w> 38
per man 38
per form</w> 38
दावबाय थिलि</w> 38
ain s.	 38
नु थायनि</w> 38
दु लारा 38
ब्ल ाय 38
gr ass 38
लै खोन</w> 38
se at</w> 38
ति रु 38
गोसो हो 38
पा र</w> 38
wor ship 38
he t</w> 38
गोजा न 38
we ather</w> 38
अन थायनि</w> 38
af f</w> 38
ग्रा फोर,</w> 38
ङा व 38
pre ad</w> 38
जोब नाय</w> 38
de al</w> 38
कु ल्ल 38
म् ब 38
fo re,</w> 38
खुं दोंमोन।</w> 38
over whel 38
हाजो वारि</w> 38
ते ल</w> 38
उन मोन 38
lif esty 38
bo asts</w> 38
pos ite</w> 38
बेराम ,</w> 38
gl ory</w> 38
फिन ो।</w> 38
बादि ब्ला,</w> 38
ल् द</w> 38
An dam 38
ब् या 38
रंजा बाजा 38
mil k.	 38
air .	 38
exc ep 38
Tem ple.	 38
बिसोर नो</w> 38
थावनि या</w> 38
लाव खार 38
फाय ारि</w> 38
visit ors.	 38
खम - 38
थाखो आ</w> 38
sou l 38
जायो ब्ला,</w> 38
गैया लासे</w> 38
बिबा ङाव</w> 38
histor y,</w> 38
गोसोखां थि</w> 38
मिथिंग ाय 38
बिलो आव</w> 38
राहा नि</w> 38
mal nutrition</w> 38
मोदोम फ्रु 38
मनदिर खौ</w> 38
conn ects</w> 38
some one</w> 38
immun ization</w> 38
cor on 38
fact or</w> 38
ism .	 38
पान जाब 38
जिबख्रि फोरा</w> 38
आबहा वा 38
अब ं 38
गवा नि</w> 38
youn g 38
Lak shad 38
diffic ulty</w> 38
इसे ल’</w> 38
any thing</w> 38
कले स्तेर 38
Delhi .	 38
signific ance</w> 38
रुगु ङाव</w> 38
sam ple</w> 38
मोनाबि लि 38
fav our 38
थाफा नाय</w> 38
सोरगो आरि</w> 38
frequ ently</w> 38
ओंथि गोनां</w> 38
ox yg 38
पेले स</w> 38
एक र</w> 38
मोननो हाथाव।</w> 38
earli est</w> 38
disc over</w> 38
Nor thern</w> 38
Or gan 38
countri es,</w> 38
piec es</w> 38
लिउ केमि 38
Jun e</w> 38
stom ach</w> 38
Jaisal mer</w> 38
nutri ents</w> 38
बागा ननि</w> 38
restric ted</w> 38
होम ब्लाबो,</w> 38
treas ure</w> 38
fab ric 38
stun ning</w> 38
बिदु ङा</w> 38
slop es</w> 38
दैज्ला ं</w> 38
हाथर खि</w> 38
bron ch 38
Allah abad</w> 38
Udai pur</w> 38
सन्दे ह</w> 38
small er</w> 38
Dut ch</w> 38
respir atory</w> 38
हाला गै</w> 38
swimm ing</w> 38
prolong ed</w> 38
रेस्त ुरे 38
Fateh pur</w> 38
amoun ts</w> 38
Vishn u</w> 38
oxyg en</w> 38
आ गा 37
आ श्र 37
म फोर</w> 37
द ार् 37
r y,</w> 37
v iv 37
e ther 37
d ens 37
c ris 37
क सि</w> 37
न ु</w> 37
न ʼ</w> 37
न सुं 37
A sh 37
l ad 37
l ay</w> 37
l ights</w> 37
s it</w> 37
s ound</w> 37
ग ्राय 37
t ory</w> 37
व ार् 37
थ ौ 37
M aj 37
ड ि</w> 37
( 17 37
g ol 37
ए सिया 37
p ig 37
p et 37
p neumon 37
उ ट</w> 37
उ न् 37
L uc 37
ङ ारि 37
अ र</w> 37
अ वा 37
S un 37
J e 37
J ap 37
V a 37
T w 37
B e</w> 37
6 7</w> 37
6 6 37
7 00</w> 37
an e</w> 37
जा थायनि</w> 37
जा थाया</w> 37
जा बाय,</w> 37
था ला</w> 37
था रनि</w> 37
था बाय</w> 37
er )</w> 37
er i</w> 37
ar aja</w> 37
गो बा</w> 37
गो दै 37
at s.	 37
नाय फोराव</w> 37
ला फोर,</w> 37
सा फा 37
सा लाय</w> 37
सा धार 37
सि निफ्राय</w> 37
st ood</w> 37
बि नद 37
मा ना</w> 37
बे बादिनो</w> 37
दा बाव 37
मि या</w> 37
जि प</w> 37
बो र</w> 37
बो गासिनो</w> 37
बो खाव 37
ch ap 37
गि थाव 37
गि थावना</w> 37
नो गोनां</w> 37
id ent 37
id ol</w> 37
से न्त</w> 37
im ages</w> 37
दे ब 37
ak es</w> 37
res ear 37
res orts</w> 37
मह ा</w> 37
li e</w> 37
मे ंग्लि 37
बार जों</w> 37
सन ,</w> 37
नु जानाय</w> 37
साब जाथाव</w> 37
all - 37
ति ब् 37
खि र 37
पा लि 37
सं जिर 37
गिरि ।</w> 37
ach es</w> 37
Sh op 37
Sh ri</w> 37
ru b 37
ard ,</w> 37
cont aining</w> 37
ition s</w> 37
फारि नि</w> 37
हारि मायारि</w> 37
सोम खोर 37
inter vention</w> 37
co - 37
reg im 37
मानसि खौ</w> 37
att acks</w> 37
rit u 37
nat ur 37
fac ing</w> 37
बेराम ि</w> 37
बेराम फोरखौ</w> 37
जारिमि ना</w> 37
सारि नि</w> 37
do es 37
खामानि माव 37
hy gi 37
riv er.	 37
जागाय दोंमोन।</w> 37
बेरामि खौ</w> 37
16 6 37
exc it 37
Ar un 37
dec id 37
आग ्राया</w> 37
कार नि</w> 37
भे क्ट 37
सोहोर ाव</w> 37
सनदेर नायनि</w> 37
जाहोन फोरनि</w> 37
बोथोर ारि</w> 37
sym bol 37
आव बो</w> 37
ste ad</w> 37
Hind us</w> 37
canc er,</w> 37
प् लि 37
popul arly</w> 37
लुबै यो</w> 37
dom estic</w> 37
थाथा नि</w> 37
dro p 37
डे स्टि 37
जान गार 37
दैमा फोरनि</w> 37
आं गो 37
rap id</w> 37
आगु नि</w> 37
हिमाल य</w> 37
craf ts</w> 37
नाङ ै 37
eleph ants</w> 37
period ,</w> 37
Is land</w> 37
Har id 37
मोनाबि लियाव</w> 37
Centr e</w> 37
bal anced</w> 37
rece ived</w> 37
संफ्ल ’ 37
appear s</w> 37
Ran ik 37
arter ies</w> 37
king dom</w> 37
tou ch</w> 37
Beng al</w> 37
Vi j 37
distinc t</w> 37
नायदिं नाय</w> 37
Her itage</w> 37
diver se</w> 37
मावख ʼ 37
after no 37
आबेग ारि</w> 37
conven ient</w> 37
एरै बादि</w> 37
Vish nu 37
garden s,</w> 37
agir i</w> 37
bust ling</w> 37
strateg ic</w> 37
Bomb ay</w> 37
circ um 37
calori e</w> 37
WH O</w> 37
Bes ides</w> 37
intestin al</w> 37
मौसु मि 37
Meg hal 37
Dalhousi e</w> 37
conjunc tiv 37
महाबा ले 37
हेफाथाय थिस</w> 37
colos sal</w> 37
phil os 37
Lakshad we 37
डेस्टि ने 37
9 7 36
स ।</w> 36
स ंग 36
र ’ 36
ब दि 36
ा नो</w> 36
ह वा 36
द फोर</w> 36
d un 36
d ark</w> 36
न ʼ 36
A pri 36
n a</w> 36
n ic 36
ख ना</w> 36
h an</w> 36
b ou 36
b ri 36
w aves</w> 36
ज मा</w> 36
ज थु 36
H el 36
f ail 36
g in</w> 36
g ent 36
N o 36
N ic 36
इ हु 36
इ सारा 36
m ad 36
m ech 36
उ ना</w> 36
उ द् 36
ट न</w> 36
अ रु 36
W est 36
j a 36
G er 36
V ill 36
T ip 36
8 4 36
6 00</w> 36
th y</w> 36
in - 36
in es,</w> 36
in form 36
जा थायफोरनि</w> 36
था लां 36
था ङो</w> 36
था खानाय</w> 36
at a,</w> 36
खा ल 36
खा ज 36
बा वनो</w> 36
बा नि,</w> 36
बा ख्रि</w> 36
हा स् 36
मोन ै</w> 36
मोन ग्रा</w> 36
सा ं 36
सा बाय 36
सा फ्रोम</w> 36
st aff</w> 36
बि सि 36
बि नि 36
गा जा 36
मा दा</w> 36
il s</w> 36
ro of</w> 36
सो नाय</w> 36
ac id 36
दि ं</w> 36
el s.	 36
as ed</w> 36
थाय निफ्राय</w> 36
न् सनि</w> 36
गु ज्रा 36
दों दि</w> 36
गि लास 36
us s 36
ारि या</w> 36
से व 36
रि क् 36
सम निफ्रायनो</w> 36
खु गा</w> 36
sh ar 36
खालाम नाय 36
खालाम नायखौ</w> 36
um .	 36
ंख ्रि 36
मे म 36
सान ै 36
लु नो</w> 36
the at 36
भार ा</w> 36
हि नदु 36
गाव नोगाव</w> 36
wor ds</w> 36
ने पा 36
ने स्व 36
मिथि जायो</w> 36
थार नांगौ।</w> 36
ind ul 36
aw a</w> 36
br anch 36
00 - 36
हादोर सा 36
सुबुं - 36
सालि ,</w> 36
ग्ल ो 36
ess ing</w> 36
if ied</w> 36
low ing</w> 36
हाग्रा मायाव</w> 36
rec t 36
rec over 36
sur g 36
बेराम ाव</w> 36
सिगा ङावनो</w> 36
नद ु</w> 36
हाबा नि</w> 36
मुवा फोर,</w> 36
हम ना</w> 36
te gr 36
जागाय ो</w> 36
vi ol 36
मनदि रा</w> 36
mil itary</w> 36
vir us.	 36
समा जनि</w> 36
Ar t</w> 36
man u 36
बेसे ननि</w> 36
ful ,</w> 36
val ue</w> 36
जिब ौ 36
visit .	 36
मिरु वाव</w> 36
fi br 36
Bh ag 36
स्रा व 36
जाहो यो</w> 36
गायसन जानाय</w> 36
थान दै 36
बिबा न</w> 36
architect ure,</w> 36
नानै बो</w> 36
art is 36
लोम जानायनि</w> 36
avail able.	 36
Shiv a.	 36
बुथुम नाय</w> 36
Man ali</w> 36
under stand</w> 36
ju st 36
ju ven 36
गिदिं नाय</w> 36
मस जिद</w> 36
distric ts</w> 36
Mus lim 36
अदे बानि,</w> 36
लाबो यो।</w> 36
सायख ʼ 36
cho ice</w> 36
फान थाव 36
हगार नाय</w> 36
जाउन फोरा</w> 36
suff er 36
हते लाव</w> 36
grow n</w> 36
exam ples</w> 36
He ad</w> 36
region ,</w> 36
ाया व,</w> 36
ement .	 36
केनसार ा</w> 36
मुम बाय</w> 36
appro ach</w> 36
अन् थाय</w> 36
God 's</w> 36
रोंमोनदां थि</w> 36
associ ation</w> 36
सोनार नानै</w> 36
spr ing</w> 36
other wise</w> 36
हाइ द्रे 36
100 ,000</w> 36
उल था</w> 36
देरहा सार 36
sour ces</w> 36
संख ्रि 36
shap e</w> 36
respon sible</w> 36
Reg ular</w> 36
लजि केल</w> 36
सोरखार नि</w> 36
digest ive</w> 36
सुबि दा 36
गिर् जा</w> 36
coff e 36
rever ed</w> 36
regard ed</w> 36
mosquit o</w> 36
एलार् जि</w> 36
abdom inal</w> 36
Mexic o</w> 36
हांख ्राय 36
Aug ust 36
claim ed</w> 36
dish es</w> 36
conduc ted</w> 36
लैथोरुगु ं 36
उसु खु 36
sensit iv 36
महाराष्ट्र नि</w> 36
inflamm ation</w> 36
नोंथां खौ</w> 36
Tig er</w> 36
जोहो लाव 36
emph asis</w> 36
spi red</w> 36
mini ature</w> 36
leis ure</w> 36
Apri l</w> 36
mech an 36
1 000</w> 35
9 9 35
9 8 35
4 3</w> 35
स प 35
स फोरनि</w> 35
स निफ्राय</w> 35
र न 35
र फोर</w> 35
ब लनि</w> 35
फ ये 35
ह रा 35
म न् 35
म फोरनि</w> 35
ल ी 35
ल ी</w> 35
द े</w> 35
y s,</w> 35
u e,</w> 35
v ar 35
v ary</w> 35
e . 35
e b</w> 35
e ur</w> 35
d ose</w> 35
. गि 35
क लि 35
क लाम 35
A R 35
k ings</w> 35
ग रा</w> 35
ख थायाव</w> 35
थ नि</w> 35
M ay</w> 35
M ay 35
b on</w> 35
b ly</w> 35
b ot 35
ज य</w> 35
( 14 35
H az 35
f ic</w> 35
f ount 35
D arg 35
इ सोरनि</w> 35
इ न्ट 35
p ted</w> 35
p ock 35
C ath 35
ट ्राइ 35
L ife</w> 35
5 7</w> 35
z a</w> 35
S ever 35
J eh 35
G ateway</w> 35
G olden</w> 35
P u 35
P at 35
ना गि 35
ना राय 35
an as</w> 35
an ese</w> 35
in habit 35
in tegr 35
था नांगौ।</w> 35
re ign</w> 35
on s.	 35
ला दोंमोन</w> 35
खा ना</w> 35
बा ,</w> 35
al )</w> 35
al ity.	 35
al ity,</w> 35
मोन दोंमोन</w> 35
सा नै</w> 35
सा खोन 35
सा फा</w> 35
सि स,</w> 35
गा हाम 35
बे बो</w> 35
बे बायदि</w> 35
ac ts</w> 35
as a</w> 35
थाय फोर,</w> 35
हो जानो</w> 35
हो दोंमोन,</w> 35
am ent</w> 35
pl ayed</w> 35
di am 35
बो लो</w> 35
ol es 35
फा इल 35
ab und 35
ag ue</w> 35
सु मा 35
no st 35
res pec 35
be d 35
ap art</w> 35
ap ur</w> 35
ed ly</w> 35
मह े 35
um ed</w> 35
ay s.	 35
दै माया</w> 35
मे कसि 35
सान जायाव</w> 35
फु ङाव</w> 35
for g 35
for ce</w> 35
se a.	 35
के रा 35
गाव स्रा 35
ति र 35
ति ,</w> 35
ति क 35
पा ला 35
ast ed</w> 35
गोजा न।</w> 35
oc c 35
अन नाय</w> 35
रे जें</w> 35
tion ed</w> 35
सिन ो।</w> 35
fe ature</w> 35
गं नै</w> 35
de ep 35
me ad 35
tri ed</w> 35
fl ights</w> 35
आय दा</w> 35
लामा फोरजों</w> 35
her bal</w> 35
nat ure 35
ight - 35
fin ally</w> 35
फाहाम नायनि</w> 35
jo ints</w> 35
te a,</w> 35
nu ts</w> 35
enti ally</w> 35
eff orts</w> 35
जिउ सा</w> 35
बिफा ननि</w> 35
air y</w> 35
खाजा फोर</w> 35
med itation</w> 35
समा नै</w> 35
बेसे ना</w> 35
cons ump 35
आग सि</w> 35
मोजां मोननाय</w> 35
सासे खौ</w> 35
up .	 35
.ए फ 35
.ए . 35
नाया व 35
जायो मोन।</w> 35
सोलों थायनि</w> 35
गौ थुम 35
dist urb 35
गायसन नाय</w> 35
तु गि 35
anti que</w> 35
del ight</w> 35
लोम जानाया</w> 35
फोनां जाब</w> 35
सिनाय नाय</w> 35
बुथुम सालि</w> 35
गोरोब लाय 35
12 0</w> 35
पार् का</w> 35
पार् कनि</w> 35
लुबै नाय</w> 35
सोलि बोनाय</w> 35
मनदिर फोरनि</w> 35
distric t.	 35
Ro yal</w> 35
cal m</w> 35
ide a</w> 35
जाउन फोर</w> 35
थाथा निया</w> 35
roc ks</w> 35
break fast</w> 35
निउत्रि सन</w> 35
हाये ननि</w> 35
थेरा पि</w> 35
exercis e.	 35
pot ter 35
medi eval</w> 35
comp et 35
उनदु नाय</w> 35
diet ary</w> 35
गोमा नाय</w> 35
requi res</w> 35
बेफोर बादि</w> 35
गोरोन थि 35
hom e.	 35
period s</w> 35
sid e.	 35
Ay urveda</w> 35
him self</w> 35
संख ्रि</w> 35
Sp end</w> 35
इउर प 35
breast feeding</w> 35
भिता मिन 35
Ran th 35
qui red</w> 35
epidem ic</w> 35
house hold</w> 35
run ning</w> 35
distinc tive</w> 35
खौरा ङारि</w> 35
curren tly</w> 35
possi ble.	 35
खेंख ्रा 35
pressu re.	 35
Progr amm 35
rick shaw 35
खमै बो</w> 35
prescri bed</w> 35
Sult an</w> 35
Ther e 35
territ ory</w> 35
स्तु पा 35
sight seeing</w> 35
निखु रै</w> 35
accoun t</w> 35
eleg ant</w> 35
भिटा मिन</w> 35
Bikan er</w> 35
नालेंख र</w> 35
ओन् सोल 35
inhab ited</w> 35
Ked ar 35
Sever al</w> 35
1 / 34
4 3 34
आ न् 34
र फोरा</w> 34
त ्रि</w> 34
म ना 34
द क 34
द ो।</w> 34
y t 34
v aries</w> 34
d ess 34
d engue</w> 34
i ar</w> 34
. अ 34
क नद 34
k n 34
n d</w> 34
n ak 34
प ु</w> 34
प लिय 34
व ै</w> 34
थ न 34
M ot 34
b arg 34
w al</w> 34
( A 34
( S 34
- सम 34
f em 34
f are</w> 34
f ell</w> 34
g y 34
N H</w> 34
N aw 34
N ehr 34
ं गि 34
ए ल</w> 34
ए लि 34
ए लाहाबा 34
इ सिं 34
m ass</w> 34
p ure</w> 34
च ि</w> 34
C aves</w> 34
L ing 34
5 8</w> 34
5 .	 34
S id 34
W ater</w> 34
P ac 34
B hav 34
th s</w> 34
th ic</w> 34
ar an</w> 34
ला जानाय</w> 34
हा दोंमोन।</w> 34
सा गर</w> 34
सा हायारि</w> 34
बि र</w> 34
बि याव</w> 34
बि सि</w> 34
मा न् 34
बे त 34
es ome</w> 34
es cap 34
थि रु 34
रा गा 34
am s,</w> 34
गु नखौ</w> 34
ad ev 34
ch ase</w> 34
फा नो</w> 34
im age</w> 34
रि सर् 34
सम सम</w> 34
खु न 34
खु नथि 34
ak ,</w> 34
जे न् 34
खालाम दों।</w> 34
ed ed</w> 34
मे ला 34
सान ख 34
le av 34
qu est 34
per m 34
जु न</w> 34
नु जानो</w> 34
ep is 34
बुं फोर 34
हि नदु</w> 34
भारत ,</w> 34
देर नो</w> 34
all s,</w> 34
par ks</w> 34
बै यो</w> 34
ख्र े 34
थु म</w> 34
सं रैखा 34
we alth</w> 34
अन गा</w> 34
टि का</w> 34
ut ,</w> 34
ग्रा म</w> 34
br ight</w> 34
de fe 34
बाहाय दोंमोन।</w> 34
आद ्रा</w> 34
खुं गिरिफोरनि</w> 34
ass ist 34
रै बो</w> 34
गार नो</w> 34
गोहो आ</w> 34
इन सुलि 34
माइ क्र 34
फार नै 34
लामा फोरा</w> 34
off ice</w> 34
off ered</w> 34
trac t</w> 34
मोनसे खौ</w> 34
हाब नायनि</w> 34
Pr ince</w> 34
आदार फोर,</w> 34
हम था 34
हम नाला 34
लाइ न</w> 34
लाइ मोन</w> 34
India.	 भारतनि</w> 34
गथ’ आ</w> 34
डि , 34
air s</w> 34
vir uses</w> 34
med it 34
जिराय खुलि</w> 34
sk iing</w> 34
man if 34
बायदि नि</w> 34
ric e,</w> 34
serv ing</w> 34
कार ब 34
खुदिया फोर</w> 34
plac e,</w> 34
आनजा दनि</w> 34
add ition</w> 34
arm s</w> 34
sup posed</w> 34
सोलों नो</w> 34
Bh im 34
lin k</w> 34
ax mi</w> 34
आव गाय 34
199 0</w> 34
गोसोखां थियाव</w> 34
आला दा 34
stre ams</w> 34
tur ned</w> 34
थाबाय नाय</w> 34
एम ब्र 34
stand ard</w> 34
राजा फोरनि</w> 34
मोदोम गेहे 34
ore .	 34
शि ब 34
हाबाफारि या</w> 34
मार् च 34
expl ored</w> 34
therap y.	 34
Ro ad,</w> 34
sty le.	 34
बेंख नजा 34
बाद ,</w> 34
गोहोम गोनां</w> 34
दिल्ल ीनि</w> 34
राजस्था न</w> 34
जानो हागौ।</w> 34
बोहै नाय</w> 34
see k</w> 34
orig in</w> 34
milli ons</w> 34
ग्ला य</w> 34
खैफोद खौ</w> 34
मध् य 34
appl es,</w> 34
arti f 34
chur ches</w> 34
Be fore</w> 34
Gh ats</w> 34
period .	 34
wond er</w> 34
अम ृ 34
benef icial</w> 34
sid e,</w> 34
sn ake</w> 34
god s</w> 34
फारसे थिं</w> 34
सम् प 34
post - 34
घन ता</w> 34
reli ef</w> 34
auth or 34
maint ained</w> 34
initi al</w> 34
मुम्बाइ नि</w> 34
eth nic</w> 34
जायाखै ।</w> 34
fair s</w> 34
settl ement</w> 34
Ag art 34
mag ical</w> 34
meth ods</w> 34
text iles</w> 34
support ed</w> 34
involv ed</w> 34
खाजुरा ह 34
diarrho ea</w> 34
corn er</w> 34
areas .	 34
फेले ं</w> 34
tox ic</w> 34
dynast y</w> 34
mater ial</w> 34
लाबा नो</w> 34
थेव ब्लाबो</w> 34
Srin agar</w> 34
antibiot ics</w> 34
Amrits ar</w> 34
गार् डे 34
anxi ety</w> 34
dot ted</w> 34
Ge org 34
Bhu ban 34
Chhat rap 34
Nehr u</w> 34
4 . 33
आ ।</w> 33
आ बार 33
ब थ 33
ब - 33
फ ार् 33
ल फोराव</w> 33
u .	 33
r ace</w> 33
v ed</w> 33
v ital</w> 33
e :</w> 33
d augh 33
i 's</w> 33
c os 33
क ो 33
क ्रु 33
न गर</w> 33
A iz 33
A mar 33
K ur 33
l am 33
ग थाय 33
t ers</w> 33
M a 33
h ire</w> 33
w ah 33
( C 33
( 18 33
3 3 33
- जायो।</w> 33
- फाहाम 33
H av 33
H ome</w> 33
f er</w> 33
f it</w> 33
f ever 33
g .</w> 33
g es</w> 33
g ro 33
g au 33
ए व 33
इ मु 33
m ine</w> 33
p ep 33
p aid</w> 33
L ike</w> 33
S y 33
S ir</w> 33
S amb 33
S pec 33
भ रत 33
O ver</w> 33
T u 33
B ec 33
I S 33
F ur 33
8 9 33
6 - 33
7 2</w> 33
U N 33
th ink</w> 33
ना जानाय</w> 33
an anth 33
in spired</w> 33
जा र् 33
था - 33
था खुलि</w> 33
re fresh 33
खा न</w> 33
मोन दों</w> 33
सा फ्रोम 33
सि ख 33
सि मनि</w> 33
मा फोरनि</w> 33
मा बा</w> 33
थि आ</w> 33
ac res</w> 33
as ked</w> 33
जि लि 33
जि बा</w> 33
pl ays</w> 33
ec u 33
di atric 33
बाय - 33
em in 33
नो ब्ला</w> 33
et an 33
रि याव</w> 33
जे ब्लाय 33
सोर गो</w> 33
con sequ 33
खो बनाय</w> 33
ing u 33
ing ly,</w> 33
बां - 33
pro m 33
od ey 33
est ive</w> 33
com e.	 33
मे क्सि 33
ow ,</w> 33
लु नायनि</w> 33
बार ै</w> 33
ot e</w> 33
गाव - 33
खि - 33
पा त 33
str ain</w> 33
dis order</w> 33
गोनां थिया</w> 33
ोम ारि</w> 33
लां नायनि</w> 33
mon ey</w> 33
जोब थायाव</w> 33
नोगोर फोरजों</w> 33
खे ब</w> 33
पि रामि 33
cre ation</w> 33
Mah al 33
over looking</w> 33
बानाय नायनि</w> 33
पे के 33
जौगा फु</w> 33
आय जो</w> 33
बाहागो ।</w> 33
bo iled</w> 33
ion s,</w> 33
सोलाय - 33
km ,</w> 33
आदार फोरा</w> 33
includ ed</w> 33
riv ers,</w> 33
जागाय नो</w> 33
मनदि राव</w> 33
गथ’ फोरखौ</w> 33
An y</w> 33
रंजा ,</w> 33
exc av 33
pur a</w> 33
फोरमाय ो</w> 33
हां ला 33
add s</w> 33
वार नि</w> 33
ध् या 33
food s.	 33
रोखोम से</w> 33
निफ्राय बो</w> 33
बारि नि</w> 33
200 0 33
मैखु ननि</w> 33
cour t</w> 33
holid ays</w> 33
बिगु राव</w> 33
बिथांखि ला।</w> 33
पुर आ</w> 33
Maharashtr a,</w> 33
भाइरा सनि</w> 33
.	बे वहाय</w> 33
क्र निक</w> 33
हौ वा</w> 33
exp ed 33
आजाव ।</w> 33
rout ine</w> 33
आं गुर 33
मेग नाव</w> 33
नाव ।</w> 33
नेवसि नो</w> 33
Per iy 33
death .	 33
Col leg 33
जाफुं सार</w> 33
prec i 33
continu ed</w> 33
flo or</w> 33
दिल्ली ,</w> 33
नी उथ्रि 33
लण्ड न</w> 33
बिस गोनां</w> 33
disord ers</w> 33
गान्ध ी</w> 33
life time</w> 33
cop e</w> 33
बुद्ध नि</w> 33
fig ures</w> 33
mag ic</w> 33
asth ma</w> 33
क्लि नि 33
pressu re,</w> 33
ref ers</w> 33
patter n</w> 33
patter ns</w> 33
regard ing</w> 33
mu d</w> 33
exper im 33
yog a</w> 33
behavi our 33
Hist ory</w> 33
नाहम नाय</w> 33
It 's</w> 33
Mandi r</w> 33
fati gu 33
राजखान्थि यारि</w> 33
गोसारद लानाय</w> 33
phot ograph 33
gat ew 33
Oot y</w> 33
केफे लाइ 33
मोदोम- गेहे 33
U.S .</w> 33
capac ity</w> 33
destroy ed</w> 33
बेनि- उनाव</w> 33
साहस गोनां</w> 33
coron ary</w> 33
Arun achal</w> 33
Ranth amb 33
स )</w> 32
र ह 32
फ ्राय 32
म र 32
म ारि</w> 32
म निफ्राय</w> 32
ल )</w> 32
ल र् 32
द ्राय</w> 32
r it</w> 32
e an</w> 32
i ers</w> 32
क चि 32
A T 32
K hand 32
l s,</w> 32
s car 32
s old</w> 32
s ought</w> 32
s ector</w> 32
ग म</w> 32
ग ौ।</w> 32
प ै 32
प रि 32
थ फ्ला 32
M u 32
M um 32
h am 32
o o</w> 32
ड ्रे 32
3 2 32
3 50</w> 32
f un 32
f et 32
f ath 32
g he 32
इ ,</w> 32
इ स</w> 32
m ur 32
m uc 32
m aster 32
R om 32
p y 32
C )</w> 32
ट स</w> 32
L o 32
5 4</w> 32
5 , 32
z z 32
z ed</w> 32
W ith 32
W odey 32
J o 32
T riv 32
B ay</w> 32
B ant 32
ण े 32
7 4 32
7 ,</w> 32
7 7</w> 32
in s.	 32
in ity</w> 32
in es.	 32
in ted</w> 32
er st 32
er a.	 32
ar m</w> 32
ar ak 32
फोर निख्रुय</w> 32
गो गो 32
re di 32
re ad 32
re mark 32
आर ज</w> 32
बा हाय</w> 32
बा व,</w> 32
मोन थावना</w> 32
सा ग 32
or ad 32
st ation.	 32
बि सि- 32
मा ला</w> 32
रा माय 32
जि ङाव</w> 32
जि राय</w> 32
am s.	 32
pl ay 32
मु ना 32
ad ly</w> 32
ad ri</w> 32
tr ained</w> 32
wh eat</w> 32
un less</w> 32
iv al 32
सु स्रां 32
खु र 32
res sion</w> 32
ap h 32
sh imm 32
फि न् 32
com pris 32
गोर ों 32
qu e 32
sp in 32
रो ङै</w> 32
का न् 32
gr ac 32
हि ल</w> 32
uc k 32
par ent 32
पा इन</w> 32
ast ,</w> 32
रु फा 32
टि क 32
ब्ला ।</w> 32
मुं जों</w> 32
फै नायनि</w> 32
मै ,</w> 32
मै ला 32
खौ ल’</w> 32
br ary</w> 32
pre dic 32
जोब नो 32
नोगोर ,</w> 32
म् बु 32
col ors</w> 32
me an</w> 32
me eting</w> 32
जों दा 32
cent re,</w> 32
loo m</w> 32
गोहो गोनां</w> 32
mo on</w> 32
मुंदा ंख 32
mar ked</w> 32
nat ure.	 32
खार सार 32
थे नाय</w> 32
थे वबो</w> 32
बेराम फोरा</w> 32
दाय नि 32
fir e</w> 32
सेर फांनि</w> 32
आदार ,</w> 32
ho od 32
सोना बाव</w> 32
हार खौ</w> 32
हार सिं</w> 32
stat ues</w> 32
ong s</w> 32
Keral a's</w> 32
बादि ।</w> 32
बादि यै,</w> 32
रंजा बाजा</w> 32
bel ief</w> 32
vir gin</w> 32
जिराय नायनि</w> 32
दिनथि नो</w> 32
Ar ound</w> 32
sk ills</w> 32
बेसे बां</w> 32
treat ments</w> 32
थावनि याव</w> 32
गोन दि</w> 32
कार े 32
हां खौ</w> 32
rem ained</w> 32
nor th- 32
visit or</w> 32
फोरबो फोरनि</w> 32
होबथा ग्रा</w> 32
ल्ल ा</w> 32
मुहि नाय</w> 32
फराय सालियाव</w> 32
हेफाजाब नि</w> 32
राहा ।</w> 32
canc er 32
Man ip 32
met ro 32
met ab 32
आखु नि</w> 32
chang ing</w> 32
Gu wah 32
रायजो आव</w> 32
destin ation.	 32
फिसा ज्ला</w> 32
हाबाफारि खौ</w> 32
नागिर नो</w> 32
नायबिजिर नाय</w> 32
मार् बल</w> 32
गां सो</w> 32
Tr an 32
relig ion</w> 32
भाइरा सजों</w> 32
valle y.	 32
जाउन गोनां</w> 32
suff icient</w> 32
गोहोम खोखलै 32
sol di 32
रैखाथि नि</w> 32
stit ut 32
आंखा ल 32
आंखा लनि</w> 32
Kar ak 32
थर थिं 32
50 %</w> 32
गोग्लै यो।</w> 32
दबथाय नाय</w> 32
मुम् बाइ</w> 32
आगु - 32
itam in</w> 32
सोनार ो।</w> 32
ub lic</w> 32
खामफा नि</w> 32
other .	 32
necess ary.	 32
diagnos ed</w> 32
wind ing</w> 32
sanctu aries</w> 32
AD ,</w> 32
मोनथि जानाय</w> 32
head quarters</w> 32
prog ress 32
लोब बा</w> 32
Im mun 32
apur am</w> 32
coast line</w> 32
बेंखन जानाय</w> 32
सोनाब हा</w> 32
बरफ नि</w> 32
Mon um 32
Afric a,</w> 32
Beng al,</w> 32
Gard ens</w> 32
फोथार ाव</w> 32
दिन्थिफुं नाय</w> 32
blood .	 32
Nov emb 32
बादाय लाय 32
खौरा ंनि</w> 32
फामु वारि</w> 32
खृष्ट ʼ</w> 32
stret ch</w> 32
way s.	 32
केन् सार</w> 32
group s,</w> 32
scho ol 32
result ing</w> 32
seed s,</w> 32
cou ple</w> 32
eu tic</w> 32
born e</w> 32
एम् फौ 32
tranqu il</w> 32
you' ll</w> 32
आथोन - 32
brok en</w> 32
Rail way</w> 32
merc ury</w> 32
Chamb a</w> 32
Math ur 32
Kozhik ode</w> 32
Munn ar</w> 32
Ujj ain</w> 32
elabor ate</w> 32
सानबो लाव 32
Darje eling</w> 32
.उ .</w> 32
साबना- हामना</w> 32
demon str 32
fibr e</w> 32
erst while</w> 32
आ साम 31
र साय 31
र सिम</w> 31
ि या</w> 31
त ाया</w> 31
ा नि</w> 31
म रा 31
द ारि</w> 31
a z</w> 31
r ying</w> 31
i e</w> 31
c ity 31
	 बियो</w> 31
क य 31
न बा 31
न फोरजों</w> 31
न वा</w> 31
न गर 31
A sho 31
K as 31
K un 31
K now 31
n or</w> 31
n aus 31
l abor 31
s et 31
s ent</w> 31
s oo 31
s ect 31
ग रा 31
t a</w> 31
प ते 31
ख नि</w> 31
) :</w> 31
M . 31
M od 31
M eh 31
b a</w> 31
b lock</w> 31
b attle</w> 31
' '</w> 31
ज नाय</w> 31
3 7</w> 31
H all</w> 31
H ills</w> 31
f f</w> 31
f el 31
f ear 31
f if 31
f ats</w> 31
m ing</w> 31
R ep 31
p ine 31
x ,</w> 31
S om 31
W at 31
J u 31
j a</w> 31
j ect 31
G all 31
O ur</w> 31
T y 31
T al 31
T ur 31
F ol 31
! 	 31
th in 31
th or 31
जा व</w> 31
जा थो 31
था थ 31
था गिरि</w> 31
er ly</w> 31
्र ै</w> 31
at al</w> 31
नाय बादि</w> 31
on ed</w> 31
ला ङो,</w> 31
बा ग 31
मोन थावना।</w> 31
सा ह</w> 31
सि ता 31
सि नायनो</w> 31
st ress 31
जो म</w> 31
बि दाम 31
गा थोनाव</w> 31
दा नो</w> 31
दा लाय</w> 31
दा मिन 31
es ;</w> 31
ro r</w> 31
रा व,</w> 31
रा हायै</w> 31
सो ।</w> 31
्रा इ</w> 31
ur .	 31
फो स्राव 31
ti al</w> 31
मि स 31
मि जिं 31
हो बाय</w> 31
जि .</w> 31
जि ला 31
ati st 31
di p</w> 31
em a</w> 31
et y.	 31
ul e</w> 31
ul tim 31
ag og 31
iv er 31
रि क 31
दे न</w> 31
सु नाय</w> 31
दाव नि</w> 31
दाव हायाव</w> 31
दं ब्ला</w> 31
od es</w> 31
मे ल</w> 31
le af 31
ow n 31
नों गावखौनो</w> 31
sp icy</w> 31
का ल</w> 31
Indi ans</w> 31
कि ं 31
ter rain 31
पा ल् 31
हु दा</w> 31
we ak</w> 31
अन नानै</w> 31
Ch it 31
Ch au 31
रु फा</w> 31
ने सनेल</w> 31
ब्ला नो</w> 31
ङा व,</w> 31
गं गा 31
car e.	 31
au l</w> 31
ther e.	 31
Mah al.	 31
हाजो ,</w> 31
हाजो फोर</w> 31
हाजो फोराव</w> 31
हाजो फोरजों</w> 31
फारि खानथि 31
fl u</w> 31
inter action</w> 31
इन ,</w> 31
फुं बि 31
off ic 31
tw o- 31
आरि यै</w> 31
bod y's</w> 31
दाय ो</w> 31
मोनसे ल</w> 31
सोलाय ो।</w> 31
ंगा ल 31
ris ing</w> 31
खन सार</w> 31
hy per 31
des c 31
जागाय नायनि</w> 31
spec ially</w> 31
केरे ला 31
mil es</w> 31
खाजा फोरनि</w> 31
Tem ples</w> 31
फोरमाय नाय</w> 31
आग जु 31
आग रत 31
dep end 31
imm ense</w> 31
सोलों थाय 31
dist ingu 31
ल’ ।</w> 31
ys is</w> 31
मन्दिर फोर</w> 31
बिमा फोरनि</w> 31
pec c 31
सालाय नो</w> 31
Hind u 31
नेरसोन गोनां</w> 31
मुसु खाया</w> 31
200 5</w> 31
थाबाय नो</w> 31
सोलि बाय</w> 31
मोननै सो</w> 31
chang ed</w> 31
sug gest</w> 31
दैदेन नाय</w> 31
wee k.	 31
मेले मनि</w> 31
therap eutic</w> 31
आनजाद सालिया</w> 31
राजमह ला</w> 31
13 th</w> 31
spre ads</w> 31
det ails</w> 31
उदां स्रिनि</w> 31
निउत्रि सनेल</w> 31
reas on 31
proc ed 31
समायना खौ</w> 31
prot ected</w> 31
नाजा ।</w> 31
बनद सान</w> 31
गोग्लै नाय</w> 31
जाथाय फोराव</w> 31
comp any</w> 31
fr agr 31
निजो म 31
गोब्राब ।</w> 31
राजस थान 31
उन्दु नाय</w> 31
प्ले ग</w> 31
एसि द</w> 31
chol era</w> 31
industr y</w> 31
relax ed</w> 31
रेल वे</w> 31
Ay urvedic</w> 31
लोब बा 31
ship s</w> 31
plan ning</w> 31
सना गाब</w> 31
Gr ou 31
आन दा 31
आबुं ।</w> 31
maint ain</w> 31
psy cho 31
ष्टि ने 31
Dec ember</w> 31
exist ing</w> 31
रोजा - 31
practic es</w> 31
tra um 31
Jan uary</w> 31
surviv al</w> 31
subst anti 31
alco hol</w> 31
room s,</w> 31
ambi ence</w> 31
wr ong</w> 31
struct ures</w> 31
महाम ारि</w> 31
promot e</w> 31
symptom s.	 31
sat is 31
orang e</w> 31
बौद्ध धोरोमारि</w> 31
compar ed</w> 31
खायसे या</w> 31
Eleph anta</w> 31
separ ate</w> 31
migr atory</w> 31
तिउबारकु लसि 31
गलायमोन देर</w> 31
लोन थि- 31
मुसलि म</w> 31
relation ship</w> 31
Sikk im</w> 31
sanc t 31
San sk 31
cerem on 31
kind s</w> 31
Prov ince</w> 31
एक्स प्रे 31
सोदां नाय</w> 31
Distric t</w> 31
Thiruv ananth 31
सुदे म</w> 31
Canc er</w> 31
pav il 31
.गि .</w> 31
artif icial</w> 31
Bec ause</w> 31
जेब्लाय बो</w> 31
shimm ering</w> 31
9 6 30
4 1 30
4 2 30
स सिम</w> 30
त ारा 30
ह पुर</w> 30
ल फोरखौ</w> 30
a o</w> 30
d ar 30
. .</w> 30
. आर 30
क नार् 30
k ne 30
K u 30
K und 30
s ick</w> 30
t ap 30
प ेरे 30
व नि</w> 30
M ake</w> 30
b and 30
b y.	 30
( 2 30
H and 30
ए ग्रे 30
m ax 30
R ab 30
R anchi</w> 30
p ts</w> 30
उ त</w> 30
C our 30
L al 30
5 2 30
अ ट 30
S t</w> 30
J ai</w> 30
O ver 30
P ah 30
= = 30
B eg 30
B lack</w> 30
8 1</w> 30
" 	 30
U r 30
th i</w> 30
in stead</w> 30
जा ग्रा 30
जा ंख्रि 30
.	 जुदि</w> 30
था फोर</w> 30
था थायाव</w> 30
re juven 30
ला दा 30
ला से 30
ला नांगौ।</w> 30
खा लामा 30
हा थायाव</w> 30
सा य</w> 30
सा खि</w> 30
सि यान</w> 30
सि खोन</w> 30
बि लिर 30
बि लास 30
बि माया</w> 30
बि दुं</w> 30
बि हारनि</w> 30
मा बा 30
मा खन 30
बे सोर 30
il a</w> 30
थि न 30
रा ंगा 30
ac quired</w> 30
is ation</w> 30
दि न्थि</w> 30
el se</w> 30
ti ,</w> 30
Th at</w> 30
Th ar</w> 30
जि रा</w> 30
मु नार 30
गु था 30
ag ar 30
ag ency</w> 30
ev al 30
सम े 30
ंग ्राय 30
दाव नो</w> 30
no is 30
no stic</w> 30
con temporary</w> 30
ap preci 30
ing redi 30
खालाम नाय,</w> 30
स् थ 30
स् ट</w> 30
pro xim 30
ay ana</w> 30
दै खर 30
मे थाय</w> 30
होन नाय</w> 30
qu e,</w> 30
लु दोंमोन</w> 30
sp ace</w> 30
भार ् 30
नु नो 30
नु यो</w> 30
फु ङो।</w> 30
खाय नो,</w> 30
ep ic</w> 30
माव नायनि</w> 30
सार ,</w> 30
गोसो नांथाव</w> 30
थु ख्रा 30
सं नाया</w> 30
Ch a 30
Ch am 30
गोनां थिनि</w> 30
मिथि यो।</w> 30
जायगा सिम</w> 30
फै यो,</w> 30
fe w 30
pre tt 30
ath a</w> 30
car eg 30
गथ फोर</w> 30
सुबुं फोरजों</w> 30
gre en 30
ph y 30
जों - 30
sy l 30
ओनसोल ।</w> 30
ओनसोल फोरा</w> 30
cent re.	 30
हारि या 30
ash r 30
जौगा नो</w> 30
बाहागो ,</w> 30
St art</w> 30
फे हेर 30
सिगा ं,</w> 30
km s)</w> 30
फिन दोंमोन।</w> 30
entr y</w> 30
spec im 30
जिउ - 30
रंजा लु</w> 30
15 th</w> 30
बिफा ना</w> 30
bel ief 30
ey es.	 30
खमाय नायनि</w> 30
दिनथि नाय</w> 30
17 th</w> 30
दिहुन ो।</w> 30
सोमो नां</w> 30
प्रदे श</w> 30
सोहोर निफ्राय</w> 30
pic ture</w> 30
old ,</w> 30
Mahar aj 30
जाहोन फोर</w> 30
मुहि नां 30
आखाय - 30
org ans</w> 30
festiv al.	 30
मिथिंग ाया</w> 30
सोमोनां थाव 30
गोरोब नाय</w> 30
बाला बारि</w> 30
hill s.	 30
नेरसोन फोर</w> 30
बिर खं</w> 30
गोसोबो कथाब 30
nam ely</w> 30
जिव खुं 30
एन केफेलाइ 30
फालांगि यारि 30
Go a,</w> 30
लों नो</w> 30
â€ “</w> 30
खान्थि नि</w> 30
wee ks.	 30
बाइ दि</w> 30
बारदेर नायनि</w> 30
धा तु</w> 30
फान नाय</w> 30
न’ ।</w> 30
लैखोन फोरखौ</w> 30
cam pa 30
डा इ 30
फिथाइ फोर,</w> 30
mark ets</w> 30
pri or</w> 30
Kan ha</w> 30
Agr a,</w> 30
fish er 30
टिका फोरा</w> 30
comb ined</w> 30
occur red</w> 30
आदब जों</w> 30
मुसुखा फोर</w> 30
Sik h</w> 30
Col orad 30
अराय था</w> 30
दारि मिनारि</w> 30
wond ers</w> 30
Res earch</w> 30
recomm end</w> 30
temper atures</w> 30
Bi har,</w> 30
गोरबो आव</w> 30
prim e</w> 30
prim arily</w> 30
mountain e 30
hosp ital</w> 30
nur sing</w> 30
थाफा देर 30
intr ic 30
बुजि नो</w> 30
आयु र् 30
invol ves</w> 30
sci ence</w> 30
respon se</w> 30
improv ement</w> 30
बरफ जों</w> 30
मुंख ्ल 30
Gan esh 30
ger ms</w> 30
मुमबाय नि</w> 30
नाथ नि</w> 30
Bab a</w> 30
epidem i 30
hydr ation</w> 30
आक बरनि</w> 30
expos ed</w> 30
Dec can</w> 30
travell ers</w> 30
लोगोसे नो</w> 30
attach ed</w> 30
नग रनि</w> 30
Marath a</w> 30
Kum arak 30
chick en</w> 30
Kon ark</w> 30
फसंथा न</w> 30
way s,</w> 30
Fr anc 30
scho ols</w> 30
fa ith</w> 30
multi - 30
Hist or 30
गसाय नि</w> 30
Aug ust</w> 30
four th</w> 30
गी र् 30
Sanctu ary</w> 30
Isl amic</w> 30
complic ations</w> 30
उप बा 30
sud den</w> 30
गुवा हा 30
brid ge</w> 30
Ashr am</w> 30
rol ling</w> 30
Mos que</w> 30
rar ely</w> 30
रानि खे 30
Ladak h</w> 30
cep ti 30
accompan ied</w> 30
dur ation</w> 30
event ually</w> 30
मोगा- मोगि</w> 30
Pati ents</w> 30
सेप् ते 30
feel ings</w> 30
Rest aur 30
safar is</w> 30
cogn itive</w> 30
adventur ous</w> 30
branch es</w> 30
consump tion</w> 30
9 6</w> 29
9 8</w> 29
आ खानथि 29
स ेरि 29
र ारि</w> 29
त र</w> 29
म फोरा</w> 29
u l</w> 29
d aw 29
d ates</w> 29
c o</w> 29
c ast 29
K ot 29
l a 29
l em 29
l et 29
l aun 29
s earch</w> 29
ग लि 29
ग ंनि</w> 29
t - 29
t ured</w> 29
ख साब</w> 29
M ond 29
b es</w> 29
w ish</w> 29
w ash</w> 29
w ool 29
' बेयो</w> 29
ड ी 29
- ब 29
f ant 29
g le</w> 29
g ue</w> 29
N as 29
इ सिङाव</w> 29
m ult 29
m ust 29
p ost</w> 29
च लनि</w> 29
’ नि</w> 29
ट ी 29
ट ्र 29
5 3 29
5 2</w> 29
S o 29
W ild 29
J am 29
J ain 29
j um 29
G ov 29
V itamin</w> 29
P y 29
P h 29
P re 29
P ath 29
B ho 29
F or 29
8 4</w> 29
6 2 29
6 4</w> 29
7 9 29
ना डु 29
an ay 29
in i</w> 29
जा र</w> 29
जा रि 29
जा लु 29
जा थायखौ</w> 29
जा थायफोर</w> 29
ar oma</w> 29
फोर , 29
नाय , 29
नाय बो</w> 29
it em 29
on al</w> 29
on e- 29
en 's</w> 29
en thr 29
ला ख</w> 29
ला नायखौ</w> 29
बा ग</w> 29
बा हेर 29
al a.	 29
हा ,</w> 29
हा नो</w> 29
मोन ो 29
मोन नाय,</w> 29
मोन स्नि</w> 29
सा हानि</w> 29
सा फारि</w> 29
सि नि,</w> 29
st ore</w> 29
बि खु 29
बि लाय</w> 29
बि ख्ल 29
मा फोरा</w> 29
मा सि</w> 29
दा जे 29
दा सान 29
दा इन 29
ro ll 29
दि ल 29
दि उ 29
el .	 29
बु ङो 29
थाय फोराव</w> 29
हो नांगौ</w> 29
हो जाबाय।</w> 29
जि लायाव</w> 29
pl as 29
ati ,</w> 29
ad em 29
ad ult</w> 29
ol a</w> 29
ch ers</w> 29
नो लि 29
हाय ु 29
im pecc 29
ev ents</w> 29
दे न 29
खु न् 29
ak sh 29
लाय मोन 29
जेर ै,</w> 29
स् नि 29
फि दिं 29
li ber 29
um s</w> 29
ंख ार 29
मे न्ट 29
le op 29
su r</w> 29
ow s,</w> 29
ear th 29
रो ज् 29
का इ 29
फु दुं 29
वा ,</w> 29
खाय सो 29
hav el 29
हि ं 29
हि साब</w> 29
ah ,</w> 29
गाव खौ 29
महर ,</w> 29
साय ारि</w> 29
ill ness.	 29
oc occ 29
Ch at 29
ने र</w> 29
ने सियानि</w> 29
गिरि खौ</w> 29
ब्ला ं</w> 29
fe els</w> 29
साव नाय</w> 29
है नायनि</w> 29
गं गानि</w> 29
ai k 29
car di 29
कु न 29
col ored</w> 29
gre ens</w> 29
cre ating</w> 29
Mah ade 29
bre athe</w> 29
tri but 29
फारि लाय 29
फारि लाइ 29
min ar 29
जौगा फुनाय</w> 29
mus ic,</w> 29
inter nal</w> 29
बाहागो फोराव</w> 29
Al i</w> 29
po e 29
फार ाव</w> 29
diseas es,</w> 29
dr iv 29
फोरा वबो</w> 29
जारिमि नारि 29
मोनसे बो</w> 29
दोन नो</w> 29
सेर फां</w> 29
abl es</w> 29
हार सिं 29
बोसोर फोराव</w> 29
हम नाय</w> 29
des ign</w> 29
गोसार नायखौ</w> 29
मनदि र,</w> 29
land ,</w> 29
15 0 29
Par v 29
दिन्थि यो</w> 29
exc ess</w> 29
खाजा ,</w> 29
थावनि नि</w> 29
plac es,</w> 29
ren ce</w> 29
प्रदे स</w> 29
प्रदे साव</w> 29
cr im 29
खम ै</w> 29
जगाय ो</w> 29
गाहाय नि</w> 29
महारा स 29
साजाय जानाय</w> 29
खाम फाया</w> 29
Wh at</w> 29
हारिमु आरि</w> 29
Pal akk 29
produc ing</w> 29
ste ep</w> 29
avail able,</w> 29
राहा जों</w> 29
राहा फोरखौ</w> 29
थाबाय ग्लां 29
can n 29
एम फौ 29
उना वनो</w> 29
cour se,</w> 29
मनदिर फोर</w> 29
हान जायाव</w> 29
एइ द् 29
सिकित सायाव</w> 29
मस ला 29
ici ans</w> 29
expl or 29
मोना म 29
हगार नायनि</w> 29
पार े 29
यार नि</w> 29
फोरनि बो</w> 29
सै थो</w> 29
नागार नो</w> 29
राजस्था नाव</w> 29
महा दे 29
बेर खां 29
आमेरि का</w> 29
बोहै थि</w> 29
इनजु राव</w> 29
As k</w> 29
well .	 29
allerg y</w> 29
dev o 29
बाराय नाय</w> 29
हटे लनि</w> 29
जेंना फोरनि</w> 29
नाजा वनो</w> 29
गला ब</w> 29
arr ay</w> 29
क्ष ा 29
pow erful</w> 29
Americ ans</w> 29
उनदु नो</w> 29
fr inged</w> 29
lak e,</w> 29
बौ द्ध</w> 29
हादाब नि</w> 29
doc um 29
arti sts</w> 29
surv ey</w> 29
गुन गोनां</w> 29
colour s</w> 29
बेरे मो 29
बुर जा</w> 29
dam age</w> 29
फारा ग</w> 29
crow ded</w> 29
Ay od 29
Sar as 29
new ly</w> 29
imp act</w> 29
cott ages</w> 29
आर् कि 29
exquis itely</w> 29
Air lines</w> 29
smo king</w> 29
भुम खौराङारि</w> 29
fil m</w> 29
राजखुं गुर</w> 29
तामि लना 29
doct ors</w> 29
आक बरा</w> 29
Oriss a,</w> 29
सम्रा ट</w> 29
sus cepti 29
exist ence</w> 29
liter ally</w> 29
हिन्दु फोरनि</w> 29
185 7</w> 29
part n 29
pill ars</w> 29
stret ches</w> 29
उखै नाय</w> 29
areas ,</w> 29
बेंग लनि</w> 29
super b</w> 29
Char les</w> 29
अनथाइ जों</w> 29
friend ly</w> 29
control led</w> 29
माउ न्ट</w> 29
बिष्ण ुनि</w> 29
लेण्ड नि</w> 29
Hous e,</w> 29
थिरां था</w> 29
neigh bor 29
valu able</w> 29
हाल गा 29
effect s.	 29
बेगे ं</w> 29
care fully</w> 29
adop t</w> 29
इन्दि या</w> 29
रेस्टुरे न्ट 29
गेजेराव ।</w> 29
लगाय नाय</w> 29
दुंब्रु द</w> 29
geograph ical</w> 29
interi ors</w> 29
त्राय बेल</w> 29
itiner ary</w> 29
embell ished</w> 29
दुलारा य</w> 29
Pac ific</w> 29
Periy ar</w> 29
1 10</w> 28
स नाव</w> 28
स ति 28
म गोनां</w> 28
य गा</w> 28
द आ</w> 28
u tr 28
r ig 28
r im 28
v ector</w> 28
d il 28
d inner</w> 28
d ried</w> 28
. C 28
क ल</w> 28
क ारि</w> 28
न ौ 28
न ी</w> 28
k is 28
k ing.	 28
K m 28
l a,</w> 28
s a 28
ग वाया</w> 28
ख फ 28
ख ʼ 28
M R</w> 28
h air</w> 28
b id 28
b att 28
w ards</w> 28
ज र</w> 28
ज जों</w> 28
( ए 28
( T 28
3 4 28
H um 28
f i</w> 28
f le 28
f atty</w> 28
g ath 28
ध ा</w> 28
इ व 28
m a,</w> 28
p a</w> 28
p anc 28
उ डि 28
C D 28
5 %</w> 28
अ श 28
S aw 28
S ub 28
J h 28
J uly</w> 28
j ac 28
I r 28
E gy 28
ना सि 28
ना खि</w> 28
जा फोरनि</w> 28
जा गोन,</w> 28
था मनि</w> 28
था थायखौ</w> 28
ar c 28
re action</w> 28
it ors</w> 28
ला दे 28
ला इन 28
बा ह 28
बा ंग 28
सा फोराव</w> 28
सा फोरजों</w> 28
सि नाय</w> 28
सि थार 28
सि थर 28
st atist 28
बि ,</w> 28
बि याम</w> 28
गा सिनो।</w> 28
थि फोर,</w> 28
ac ies</w> 28
हो नांगौ।</w> 28
जि जों</w> 28
जि नै</w> 28
am - 28
बाय था 28
ad oles 28
em p 28
lo t 28
नो हायै</w> 28
et er</w> 28
et ernal</w> 28
ent 's</w> 28
सम ,</w> 28
या खौ</w> 28
खु रै</w> 28
निफ ्राइ</w> 28
ex change</w> 28
ing e</w> 28
स् ला 28
मह ल,</w> 28
pro state</w> 28
दं मोन,</w> 28
फि नो</w> 28
um es</w> 28
हाग ्राय 28
ay an</w> 28
and ing</w> 28
दै थाय</w> 28
सान नो</w> 28
सान नै 28
सान जानि</w> 28
दावबाय नाय,</w> 28
सन खौ</w> 28
सन दे 28
मान गोनां</w> 28
ter ing</w> 28
माव थाय</w> 28
gr a</w> 28
se a,</w> 28
ang ir</w> 28
साब ना</w> 28
थो ब</w> 28
गाव सिनि</w> 28
गोसो आ</w> 28
पा न् 28
cl ass</w> 28
oc ol 28
we ap 28
we ar</w> 28
समाय नानि</w> 28
dis h</w> 28
गोनां थार 28
टि काया</w> 28
ने म</w> 28
क् का 28
tre m 28
ind icate</w> 28
br ac 28
pre domin 28
wat ching</w> 28
कु मार 28
Sh ill 28
pr one</w> 28
col our</w> 28
आद बाव</w> 28
ph ther 28
जों खोल</w> 28
enc oun 28
min eral 28
fl ight</w> 28
Al ong</w> 28
form ing</w> 28
off ici 28
off icial</w> 28
ord inary</w> 28
बेराम ।</w> 28
fin al</w> 28
hel p 28
मोनसे लʼ</w> 28
sit e.	 28
gl ass 28
देहा गोनां</w> 28
खामानि ,</w> 28
मुवा नि</w> 28
गोजोन ग्लाय 28
riv er,</w> 28
infec tions.	 28
countr y's</w> 28
ey es,</w> 28
दिन्थि नो</w> 28
खाजा फोरखौ</w> 28
Tem pl 28
बेसे बा</w> 28
cons ist</w> 28
ful l 28
pers ist 28
जिब - 28
dep ends</w> 28
खम ।</w> 28
cult ure.	 28
मिरु नि</w> 28
हिसाब ै,</w> 28
ण्ड नि</w> 28
बोर ा 28
जाहोन नि</w> 28
fort s,</w> 28
गौ मानि</w> 28
खरं फोरनि</w> 28
eng aged</w> 28
मुहि नि 28
फालि जायो।</w> 28
बैसो आव</w> 28
गायसन दोंमोन</w> 28
गुबुन गुबुन</w> 28
हारिमु खौ</w> 28
मन्दिर फोरा</w> 28
enjo ying</w> 28
stre et</w> 28
गोसोबो यो।</w> 28
प् पा 28
जिव खौ</w> 28
under take</w> 28
leg s</w> 28
साह स</w> 28
साह सि</w> 28
एइ स.आइ.भि 28
हानजा जों</w> 28
हाबाफारि फोरा</w> 28
mis sion 28
sim pl 28
Ro ad.	 28
activ ities.	 28
जाहा ज</w> 28
coll ected</w> 28
hab its</w> 28
गिया ननि</w> 28
anim als.	 28
hum ans</w> 28
लैखोन फोर</w> 28
आबु -दौ 28
गाज्रि - 28
जानो - 28
सौ हैनो</w> 28
आमेरि कान 28
ement ,</w> 28
हाये नाव</w> 28
allerg ies</w> 28
बान ते 28
exercis e,</w> 28
clim b</w> 28
men tion</w> 28
fish ,</w> 28
experienc ed</w> 28
experienc es</w> 28
जाथाय फोरा</w> 28
rout es</w> 28
Nag a</w> 28
साग्लोब नाय</w> 28
ग्र ो 28
हादाब ाव</w> 28
आदब खौ</w> 28
etc .</w> 28
आखा फा 28
hor se</w> 28
craf t</w> 28
arti facts</w> 28
chur ch 28
happ ens</w> 28
oper ation</w> 28
mi x</w> 28
मुखु ब 28
आखि नाय</w> 28
दैबाज्रु म</w> 28
उल था 28
दन्द र</w> 28
system ,</w> 28
je ep</w> 28
उखु म</w> 28
reserv ation</w> 28
displ ays</w> 28
हेफाजाब- होनो</w> 28
बादा म</w> 28
बांद्राय - 28
plant ations</w> 28
environ mental</w> 28
boo ks</w> 28
एलार जि 28
independ ent</w> 28
diver s 28
गंसे ।</w> 28
कलका ता,</w> 28
investig ations</w> 28
achiev e</w> 28
wher e 28
const ant</w> 28
खन् थाय 28
draw n</w> 28
wel come</w> 28
museum s</w> 28
advis ed</w> 28
Bad rin 28
हास थाय 28
फेब्रु वारि</w> 28
mand atory</w> 28
.एस .</w> 28
success ful</w> 28
situ ation</w> 28
kid ne 28
The kk 28
Id uk 28
दखर से</w> 28
Dam an</w> 28
Cap ital</w> 28
स्नाय ु</w> 28
vent ure</w> 28
लाउ रि</w> 28
दावराव -दाव 28
susp ected</w> 28
महारासत्र नि</w> 28
moder ate</w> 28
महारास्त्र नि</w> 28
scienti fic</w> 28
leukem ia</w> 28
गमामाय ै</w> 28
Mahabal eshwar</w> 28
गोहोम- खोख्लै 28
mausol eum</w> 28
साहसि हाबा</w> 28
Univers ity</w> 28
Garh wal</w> 28
coffe e,</w> 28
manif est 28
Chhatrap ati</w> 28
Mum t 28
remark able</w> 28
एग्रे बा 28
prett y</w> 28
2 ,000</w> 27
स ै</w> 27
स त् 27
र ंग 27
त न</w> 27
ब ंग 27
म म 27
म ।</w> 27
द जों</w> 27
a f</w> 27
r y.	 27
r ays</w> 27
e ).	 27
i . 27
i el 27
c up</w> 27
क खौ</w> 27
n i</w> 27
l ic 27
l it</w> 27
s elling</w> 27
t etan 27
प ो 27
व ि</w> 27
M ak 27
b .	 27
b is 27
o s,</w> 27
ज वा 27
ज मुना</w> 27
( 9 27
( R 27
3 3</w> 27
- सा 27
H an 27
H osp 27
f al 27
f und 27
g e,</w> 27
D urg 27
D ehr 27
ए ने 27
इ टि 27
m ill 27
p ink</w> 27
च ् 27
C ,</w> 27
L on 27
L ou 27
5 00 27
अ ं 27
अ स्त्र 27
S ch 27
S et</w> 27
S erv 27
O m 27
O R 27
P ad 27
P hil 27
B C</w> 27
B lood</w> 27
E ver 27
E arly</w> 27
F ir 27
8 1 27
8 00</w> 27
औ वानि</w> 27
घ ु 27
6 1</w> 27
ना गा</w> 27
in carn 27
.	 18 27
था ग्रा 27
था गिरिफोरा</w> 27
था लांनाय</w> 27
ोन िफ्राय</w> 27
ar e,</w> 27
at ever</w> 27
re treat</w> 27
नाय मोन।</w> 27
it e.	 27
on 's</w> 27
en s,</w> 27
ou ter</w> 27
सा त 27
सा प्लि 27
st ep</w> 27
st ories</w> 27
बि न्द 27
गा जर 27
मा हि</w> 27
ro se</w> 27
रा बो</w> 27
नि र 27
जाय नो</w> 27
जाय जों</w> 27
दि नि</w> 27
as le 27
Th en</w> 27
हो फा 27
हो गासिनो</w> 27
जि वाव</w> 27
am alg 27
गु जुरा 27
बो दों</w> 27
ch est 27
ch lor 27
tr i</w> 27
em per 27
em pt 27
ab ad 27
ab sol 27
av idi 27
un usual</w> 27
नो ङो</w> 27
ul l</w> 27
ent ary</w> 27
से न्ट</w> 27
लाय मोन</w> 27
ex pan 27
res erve</w> 27
res embl 27
ing ton</w> 27
खालाम बाय।</w> 27
स् क</w> 27
बां नायनि</w> 27
um ul 27
ay s,</w> 27
op posite</w> 27
मे घा 27
ow ed</w> 27
लु जादोंमोन</w> 27
जु क् 27
बार ,</w> 27
का ला 27
फु ट 27
दु लुर</w> 27
राय ाव</w> 27
se af 27
साब द्राय 27
साब सिनै</w> 27
par k.	 27
गाव नि 27
राज फोलेरारि</w> 27
ता जनि</w> 27
गोसो नां 27
थु र</w> 27
we al 27
अन थायाव</w> 27
dis cover 27
tre es,</w> 27
ग्रा म 27
फै ।</w> 27
है नाय</w> 27
ish es</w> 27
थां दोंमोन।</w> 27
थां खांनाय</w> 27
थां नाथानाय</w> 27
pr ise</w> 27
loc al 27
सुबुं जों</w> 27
खुं थाय 27
थै नायखौ</w> 27
cre am</w> 27
pu ts</w> 27
cont ac 27
नार थायखौ</w> 27
ब्र ु</w> 27
फारि या</w> 27
low est</w> 27
min us</w> 27
fl our</w> 27
गेजेर - 27
inter ac 27
Al m 27
bo x 27
bo ating</w> 27
nat ure,</w> 27
acc umul 27
आरि - 27
tak en.	 27
prov inc 27
gl imp 27
cu st 27
ंगा र</w> 27
हाबा - 27
jo int 27
ris es</w> 27
आदार जों</w> 27
गाब गा 27
ign ed</w> 27
des pite</w> 27
जिउ खुं 27
az ed</w> 27
hear t 27
डि ग्रि</w> 27
Par as 27
Par li 27
pal m 27
16 थि</w> 27
खाजा फोरा</w> 27
खमाय ो</w> 27
खमाय नाया</w> 27
लिर थायनि</w> 27
row s</w> 27
बेसे नाव</w> 27
olog y.	 27
भे क 27
pers on.	 27
खुदिया नो</w> 27
nor th 27
add ing</w> 27
वार ,</w> 27
फ्रा माव</w> 27
fi bre 27
int ell 27
aff ord 27
aff ord</w> 27
सोलों थायारि</w> 27
gen ous</w> 27
फालि नो</w> 27
clo th</w> 27
आखाय लुथाय 27
sec tion</w> 27
बिबार बारि</w> 27
differ ence</w> 27
जानाय - 27
हारिमु ,</w> 27
हेफाजाब जों</w> 27
festiv al,</w> 27
बय निखु 27
लोम जानाय 27
produc es</w> 27
जोर नाय</w> 27
vill ag 27
12 th</w> 27
can 't</w> 27
popul ation.	 27
On ly</w> 27
Un ion</w> 27
holid ay.	 27
मनदिर ।</w> 27
fer ence</w> 27
खाबु खौ</w> 27
लों ग्रा</w> 27
20 %</w> 27
जोबोर समायना</w> 27
बिथांखि ला</w> 27
स्व र 27
monum ents,</w> 27
वे ल 27
गोदो मिनारि</w> 27
cal c 27
ext ended</w> 27
sl ightly</w> 27
hour s.	 27
Sou thern</w> 27
थिलि याव</w> 27
न’ लुथाय 27
beaut y,</w> 27
surround ings</w> 27
consid er</w> 27
बहा इ 27
flow er</w> 27
flow ers,</w> 27
condition .	 27
गोनांथि ।</w> 27
मख ’ 27
men tioned</w> 27
सरजाब फायो।</w> 27
भुगि नाय</w> 27
lov ed</w> 27
राजथावनि या</w> 27
comb in 27
mov ing</w> 27
cat eg 27
अब स्था 27
appl ied</w> 27
swe et 27
Ram a</w> 27
मुसुखा खौ</w> 27
दाजाबदेर नाय</w> 27
memor ial</w> 27
happ y</w> 27
sleep ,</w> 27
pul s 27
carri es</w> 27
sam ples</w> 27
Bi j 27
cuis ine.	 27
Sar is 27
nur se</w> 27
jour ne 27
मारा था</w> 27
बिथिं फोराव</w> 27
HIV / 27
Dr .</w> 27
जाबो दों।</w> 27
सफ था</w> 27
dow n,</w> 27
charac ter</w> 27
खोना सं 27
gall ery</w> 27
Ak b 27
tan k</w> 27
अखा फोर</w> 27
बोरि मा</w> 27
आसा मनि</w> 27
eat en</w> 27
औरं जे 27
hu b</w> 27
गुजरा तनि</w> 27
फोजोबस्रां नो</w> 27
Gwal i 27
deter mine</w> 27
सांग्रां थि</w> 27
मुलामफा गोनां</w> 27
immedi ate</w> 27
दैथाय हर 27
Jaisal mer,</w> 27
mom ent</w> 27
wit n 27
grand eur</w> 27
Christ ian</w> 27
find s</w> 27
dos es</w> 27
कृष्ण नि</w> 27
Bag h</w> 27
seed s</w> 27
jewell ery</w> 27
mater i 27
garden s.	 27
निल गिरि</w> 27
Yamun a</w> 27
itself .	 27
काश्मी रनि</w> 27
गनथ ं</w> 27
sensit ive</w> 27
टि. बि</w> 27
embroid ered</w> 27
physici an</w> 27
स्नाय ु 27
गलायमोन देर 27
लग ननि</w> 27
सप् था 27
enter tain 27
belong ing</w> 27
आखाइ जों</w> 27
आजा वनो</w> 27
होन् ना</w> 27
vess els</w> 27
keep ing</w> 27
आयुरबेदि क</w> 27
harm ful</w> 27
Minist ry</w> 27
elec tr 27
जापा निस</w> 27
resour ces</w> 27
spac ious</w> 27
delight ful</w> 27
Rishik esh</w> 27
strug gle</w> 27
श्व र</w> 27
reliev e</w> 27
Konk an</w> 27
Nest ling</w> 27
Lit tle</w> 27
advant age</w> 27
identif y</w> 27
Nagal and</w> 27
सेरफा ङाव</w> 27
Territ ory</w> 27
perman ent</w> 27
Tw o</w> 27
दाबाव ।</w> 27
Nic ob 27
हास् थाय 27
बिसि- फिसाय 27
आथोन- ग्र 27
divers ity</w> 27
Han um 27
बयनिखु रैबो</w> 27
4 6 26
आ थोन</w> 26
र बिबार 26
त प 26
ब द 26
द फोरखौ</w> 26
a e</w> 26
a ),</w> 26
r ,</w> 26
v an</w> 26
e ag 26
d ant</w> 26
d ining</w> 26
i os 26
c ab 26
c ig 26
क ी 26
न हा</w> 26
A .</w> 26
A L 26
k illed</w> 26
K ov 26
n ’t</w> 26
l av 26
l asting</w> 26
s y</w> 26
s in 26
ग थाय</w> 26
व ारा 26
थ ्रा 26
h ic 26
h owever</w> 26
w on</w> 26
3 .	 26
- होनाय</w> 26
f ly</w> 26
f ai 26
g ame</w> 26
ध नि</w> 26
ध ्र 26
N al 26
N either</w> 26
Y or 26
ए जेन 26
p are</w> 26
च ी 26
उ ज् 26
, 000 26
L od 26
S n 26
S T 26
S tr 26
S av 26
J E</w> 26
j ah 26
T aj 26
E d 26
7 6</w> 26
7 th</w> 26
ना जों</w> 26
ना कु 26
an j 26
जा मा</w> 26
जा लां 26
जा नांगोन</w> 26
जा उना</w> 26
था थायनि</w> 26
था लिर 26
था गिरिफोरनि</w> 26
ार ा</w> 26
ar aj 26
गो थै 26
re d,</w> 26
नाय -</w> 26
नाय गिर 26
ला बो</w> 26
ला क्षा 26
बा सि 26
बा ङो।</w> 26
बा दाव</w> 26
al ed</w> 26
हा ब</w> 26
हा ब्रु 26
हा दाब</w> 26
मोन जानाय</w> 26
सि खौ</w> 26
सि नि 26
st alls</w> 26
जो थोनाव</w> 26
बि न</w> 26
बि थायाव</w> 26
बि खुं 26
मा नाव</w> 26
es 	 26
थि या 26
रा दाब 26
नि यानि</w> 26
ic al,</w> 26
दि स</w> 26
el ements</w> 26
as es</w> 26
फो लाव 26
मि क</w> 26
Th us</w> 26
pl aying</w> 26
di ,</w> 26
बाय नायनि</w> 26
बाय मोन।</w> 26
बाय ग्रा</w> 26
ad h</w> 26
ch a 26
ch and 26
गि ख्र 26
tr igg 26
un t 26
id ,</w> 26
ag ic</w> 26
ag nostic</w> 26
ent ly,</w> 26
से - 26
im um</w> 26
iv e,</w> 26
दे द 26
दे बि</w> 26
सम जों</w> 26
be d.	 26
स् ने 26
स् थे 26
मह ार 26
li p 26
सान फोरखौ</w> 26
सान फायाव</w> 26
qu aint</w> 26
the ast</w> 26
sp o 26
ter rain</w> 26
के ल’ 26
के दार 26
महर जों</w> 26
anc y</w> 26
ne g 26
Ch al 26
खर ’</w> 26
नां नो</w> 26
लां दां</w> 26
थार ै 26
ind uc 26
fe ed</w> 26
fe ar</w> 26
खां नो</w> 26
खां नाय,</w> 26
end emic</w> 26
br illi 26
pre mises</w> 26
नै जि</w> 26
de e 26
car rying</w> 26
म् बर 26
ant i</w> 26
गथ आ</w> 26
loc ally</w> 26
ell ed</w> 26
au to</w> 26
col or</w> 26
me tr 26
ph en 26
थै नाया</w> 26
bl essed</w> 26
सालि खौ</w> 26
रै दु 26
जों हा</w> 26
नार थाय</w> 26
min ute</w> 26
थांख ु</w> 26
आय े 26
आय जें</w> 26
खाथि यावनो</w> 26
मानसि फोरजों</w> 26
mar ri 26
bo di 26
हाग्रा बारि 26
लामा फोराव</w> 26
खै मोन</w> 26
बेराम जों</w> 26
har k 26
लैथो आव</w> 26
लैथो आरि</w> 26
jo int</w> 26
do or 26
खामानि -माव 26
arch aeological</w> 26
थांखि नि</w> 26
थांखि थिलि</w> 26
pati ent.	 26
pati ents.	 26
हम ना 26
आइ न</w> 26
larg ely</w> 26
जागाय नानै</w> 26
धोरोम दावबायारि</w> 26
गथ’ खौ</w> 26
az e</w> 26
नेर ् 26
दिनथि यो</w> 26
फोरमाय नो</w> 26
sk in.	 26
man ,</w> 26
थावनि फोरनि</w> 26
hand ,</w> 26
सोमजि होजानाय</w> 26
rem ember</w> 26
nor th,</w> 26
attrac tions.	 26
tow er</w> 26
ob ese</w> 26
up ,</w> 26
cr uc 26
cr yst 26
pic t 26
मिरु फोरनि</w> 26
incre di 26
sou ven 26
ण्ड ी 26
खरं फोरा</w> 26
गायसन नो</w> 26
anti qu 26
लाफा देर 26
हेफाजाब होयो।</w> 26
Af gh 26
रोखोम - 26
199 4 26
गेले मु</w> 26
pec ts</w> 26
por tion</w> 26
ra ised</w> 26
गुफु र 26
produc ts,</w> 26
नखर ाव</w> 26
आरिमु ,</w> 26
Kh an</w> 26
sub sequ 26
fru its.	 26
under taken</w> 26
एन , 26
लुबै यो।</w> 26
दैदेन नो</w> 26
शि बनि</w> 26
फिसा - 26
मेजे मनि</w> 26
हाबाफारि याव</w> 26
नागिर नाय</w> 26
नागिर ना</w> 26
नायबिजिर नायनि</w> 26
beach es.	 26
गैय ि 26
sw elling</w> 26
therap y,</w> 26
health ,</w> 26
them ,</w> 26
immun ity</w> 26
organ ic</w> 26
डे ष्टिने 26
फोजोब नो</w> 26
sun - 26
साबना हाम 26
Ko him 26
design s</w> 26
consid er 26
जेंना फोरखौ</w> 26
flow s</w> 26
flow ing</w> 26
अज न</w> 26
clim bing</w> 26
Gang es</w> 26
exp ected</w> 26
exp ensive</w> 26
found ation</w> 26
Kan s 26
paint ings,</w> 26
आं खौ</w> 26
खृ ष् 26
Con n 26
ins omn 26
lak e.	 26
mov ements</w> 26
Gre en</w> 26
हिमाल य 26
दाजाबदेर ो।</w> 26
Sik h 26
सन् या 26
30 %</w> 26
happ en</w> 26
दुगै ग्रा</w> 26
sleep ing</w> 26
आजौ - 26
pul se</w> 26
tom at 26
temper at 26
reach ing</w> 26
rain fall</w> 26
ston e,</w> 26
सावस्रि नि</w> 26
सावस्रि यारि</w> 26
गोनो - 26
new born</w> 26
resid ent</w> 26
soci ety</w> 26
handicraf ts,</w> 26
बोगथाब नो</w> 26
appear ance</w> 26
gall - 26
राजसथा नाव</w> 26
पर् टु 26
हाथाय खालामनाय</w> 26
फ्राम ।</w> 26
आफ्रि कानि</w> 26
गायखेर ,</w> 26
disc us 26
बारहा वा</w> 26
fig ure</w> 26
problem s.	 26
shaw ls</w> 26
फसंथा ननि</w> 26
achiev ed</w> 26
tax i</w> 26
ब्रै थि</w> 26
writ ten</w> 26
Sc ot 26
streng th</w> 26
Jah an</w> 26
सेल सिया 26
rh in 26
फेर ि</w> 26
फेले ं 26
जम् मु 26
advis able</w> 26
Dep artment</w> 26
मोगा मोगि 26
Jag an 26
Febr u 26
nest ling</w> 26
Fl or 26
एम. जि. 26
उनाव सो</w> 26
Se a.	 26
मिल ौ 26
gif t</w> 26
जाफ्ले बाय</w> 26
arriv al</w> 26
fati gue</w> 26
खाफा ल 26
chem ical</w> 26
Ke ep</w> 26
Dhar am 26
गोदोन ि 26
सिदो ब</w> 26
indi genous</w> 26
shif ted</w> 26
अरगे ं</w> 26
determin ed</w> 26
prevent ing</w> 26
Dak ota</w> 26
ओरै नो</w> 26
plate au</w> 26
fert ile</w> 26
Yog a</w> 26
दोहोर ोमारि</w> 26
गगा- मोननाय</w> 26
इजि प् 26
Fam ous</w> 26
interven tions</w> 26
contribut e</w> 26
Er nak 26
Commun icable</w> 26
सें सु 26
रांखान्थि यारि</w> 26
Thris sur</w> 26
vul n 26
उदा ङै</w> 26
कह ला 26
कʼ चि 26
favour ite</w> 26
natur ally</w> 26
बिनि खायनो</w> 26
rickshaw s</w> 26
escap e</w> 26
मुंदांख ायै</w> 26
Sansk rit</w> 26
Dehr ad 26
Alm ora</w> 26
गिख्र ं 26
Ernak ul 26
आ था 25
आ सार</w> 25
आ गोलाव</w> 25
आ जौ</w> 25
आ न्दा 25
स ी 25
स ोन।</w> 25
त म 25
ा वबो</w> 25
म बर</w> 25
ल म</w> 25
द फोरनि</w> 25
द फोरा</w> 25
y s.	 25
y ’s</w> 25
u e.	 25
r as</w> 25
r a,</w> 25
r ic</w> 25
r amid 25
. 5</w> 25
. ),</w> 25
क न</w> 25
न ख 25
न स</w> 25
न दि</w> 25
k ids</w> 25
K ap 25
n s,</w> 25
n ights</w> 25
l igh 25
l ets</w> 25
s ave</w> 25
ग आ</w> 25
t ation</w> 25
t ort 25
प ी 25
ख मि 25
M C 25
M ir 25
M ata</w> 25
M MR</w> 25
b ak 25
b ound</w> 25
b er.	 25
b ott 25
w ast 25
ज आ</w> 25
ज ʼ 25
ज फोरनि</w> 25
( D 25
f it 25
f ight 25
D r</w> 25
D ay</w> 25
ध र</w> 25
ए खन 25
इ उ</w> 25
इ दा 25
इ ना</w> 25
इ दु 25
इ मार 25
इ लाहाबा 25
R ani</w> 25
, आरो</w> 25
C ult 25
ट स 25
ट ी</w> 25
5 1</w> 25
अ रे 25
S on 25
W ild</w> 25
O p 25
P ic 25
P ap 25
B - 25
B en 25
B il 25
B ast 25
E p 25
8 ,</w> 25
8 . 25
8 7 25
6 4 25
6 8 25
6 3</w> 25
7 2 25
th is,</w> 25
th ick 25
ना स</w> 25
ना म</w> 25
an - 25
जा फोर</w> 25
जा होनायनि</w> 25
.	 गासै</w> 25
er a,</w> 25
गो यै 25
at es.	 25
re pl 25
re tro 25
नाय थाव</w> 25
नाय है</w> 25
on ic</w> 25
en orm 25
ला नाय,</w> 25
ला व,</w> 25
ला फाय 25
al ing</w> 25
हा म</w> 25
हा थाइ</w> 25
हा ब्रु</w> 25
सा ल</w> 25
सा हि 25
सि जों</w> 25
सि खोन 25
st ore 25
बि जा 25
बि फोरनि</w> 25
बि खानि</w> 25
मा निफ्राय</w> 25
il ,</w> 25
थि खा 25
जाय निफ्राय</w> 25
ेर ि</w> 25
el a</w> 25
मि : 25
हो दोर 25
ec h</w> 25
गु प् 25
गु दु</w> 25
di d 25
di um</w> 25
बो यो।</w> 25
em por 25
id e.	 25
id den</w> 25
et c</w> 25
et am 25
ag ing</w> 25
रि खौ</w> 25
रि फोरनि</w> 25
रि फोर</w> 25
दे म 25
दे ंख 25
गे वनाय</w> 25
सु खु 25
जे बो 25
दाव नाय</w> 25
दाव फोरनि</w> 25
दाव खो 25
con di 25
con sc 25
ap s</w> 25
ed s</w> 25
बां नाया</w> 25
बां सिन।</w> 25
od a</w> 25
हाग ्रायाव</w> 25
जौ से</w> 25
and ering</w> 25
दै सानि</w> 25
op tion</w> 25
op tim 25
सान दुं 25
qu ick</w> 25
qu een</w> 25
ow ned</w> 25
बार नानै</w> 25
sp ices</w> 25
bu ff 25
दु नि</w> 25
दु गा 25
ले क</w> 25
बुं दोंमोन।</w> 25
all i</w> 25
par al 25
ता ननि</w> 25
बै फोरो</w> 25
खि नि</w> 25
a.	 बे</w> 25
पा व 25
si x 25
cl ad</w> 25
cl aim</w> 25
he ar</w> 25
ud - 25
we l</w> 25
we ight,</w> 25
अन साय 25
ri ,</w> 25
नां नायनि</w> 25
नां दोंमोन।</w> 25
ग्रा खौ</w> 25
सिन था 25
aw ay,</w> 25
pre h 25
जोब था 25
ver and 25
ver dant</w> 25
थां खु 25
नोगोर फोराव</w> 25
und i</w> 25
und erg 25
गथ खौ</w> 25
दान नाय</w> 25
आद ्रा 25
गिदि र 25
गिदि ं</w> 25
प्र जे 25
प्र भि 25
bl ing</w> 25
over ,</w> 25
ओनसोल ,</w> 25
sc ale</w> 25
उन - 25
coun t</w> 25
coun ter</w> 25
fl oral</w> 25
आय दायाव</w> 25
ेरि यानि</w> 25
co ol 25
rel ev 25
form erly</w> 25
reg ularly</w> 25
माइ सु 25
rit ual</w> 25
pos it 25
pos ition 25
बेराम निफ्राय</w> 25
cas es.	 25
ris k.	 25
खामानि फोरखौ</w> 25
थांखि खौ</w> 25
स्त ्र</w> 25
गोजोन ै</w> 25
गोजोन नायखौ</w> 25
गासि बो</w> 25
An c 25
15 00</w> 25
vir tu 25
त् ता 25
हादर सायाव</w> 25
मोनदां नाय</w> 25
आग र 25
सोहोर ।</w> 25
tow ering</w> 25
tic k 25
फोरबो आव</w> 25
दर ख 25
खाव लाय 25
10 th</w> 25
develop s</w> 25
मोदो मनि</w> 25
sou th- 25
जाहोन खौ</w> 25
gen eral 25
archit ect</w> 25
स्रा ं</w> 25
lin ing</w> 25
मुहि नि</w> 25
clo sed</w> 25
ax is</w> 25
anti bodies</w> 25
जानाय फोरा</w> 25
बिमा फोर</w> 25
enjo ys</w> 25
mod ern 25
राहा फोर</w> 25
wom en,</w> 25
wom en.	 25
मुलै फोरनि</w> 25
मुलै फोरा</w> 25
सोलि नाय</w> 25
Go a.	 25
दैदेन गिरि</w> 25
बिगु रखौ</w> 25
20 - 25
expl ore 25
Buddh ism</w> 25
commun ities</w> 25
थुलु ंग 25
हरखा ब 25
मोना ।</w> 25
भाइरा सखौ</w> 25
गाथोन नि</w> 25
गासै निबो</w> 25
दिप ाव</w> 25
prev ious</w> 25
सोमोनदो नि</w> 25
pass ing</w> 25
ाया नो</w> 25
आंखा ला</w> 25
consid erable</w> 25
prot ective</w> 25
अज नता</w> 25
condition ,</w> 25
ush ing</w> 25
ism s</w> 25
मिनि ट</w> 25
spir it</w> 25
Tour ism,</w> 25
रोंमोनदां थि 25
lov ers</w> 25
Himalay as,</w> 25
आल ौ 25
गले गले</w> 25
famil y.	 25
आगु लैखोन 25
mov ed</w> 25
Gre ek</w> 25
show ing</w> 25
my st 25
hor iz 25
साहा - 25
arti stic</w> 25
Gujar ati</w> 25
समाजा व</w> 25
tal es</w> 25
hom es</w> 25
Gh at</w> 25
दुगै नाय</w> 25
Is lands</w> 25
perform ance</w> 25
Su fi</w> 25
Bi g</w> 25
सा- सानजा</w> 25
relax ation</w> 25
crow d</w> 25
wid es 25
Gur uv 25
गोनो गोथो</w> 25
Dr avidi 25
सफ था 25
cul tiv 25
बेंखन नाय</w> 25
मोनदि र</w> 25
सत्र पति</w> 25
मुंख ’ 25
मेर नि</w> 25
बुमिन सारनि</w> 25
sho ot 25
खौरां खौ</w> 25
फ्रे न्स</w> 25
initi ated</w> 25
disord ers.	 25
सिबा जिनि</w> 25
एलार जिक</w> 25
गोसो-बाय नाय</w> 25
Cor bet 25
Ass am,</w> 25
lung s.	 25
tog ether 25
pregnanc y,</w> 25
बेगर फोर,</w> 25
सुग्लाय नाय</w> 25
NIC D</w> 25
tax is</w> 25
Re ad</w> 25
dou ble</w> 25
emerg ency</w> 25
Shah jah 25
सानजा हा</w> 25
carp ets</w> 25
Des pite</w> 25
घन्टा नि</w> 25
बाउ नाय</w> 25
फेब्रु वारि 25
बिहो मा</w> 25
atmosph er 25
techni que</w> 25
नान था 25
island s,</w> 25
too .	 25
Gen eral</w> 25
profession al</w> 25
enem a</w> 25
बिल् दिं 25
evol u 25
pois on 25
Sum atra</w> 25
Nilgir i</w> 25
मैगं- थाय 25
fut ure</w> 25
मिउजि या 25
influenz a</w> 25
Leg end</w> 25
बिसम् बि</w> 25
excur sion</w> 25
agricult ural</w> 25
Jab alpur</w> 25
contam inated</w> 25
lan es</w> 25
stres s.	 25
गल् फ</w> 25
adren al 25
बुंफुर लु 25
syndro me</w> 25
Kottay am</w> 25
Corpor ation</w> 25
दावहार ु 25
अबं लाउरि</w> 25
gol f</w> 25
Shop ping</w> 25
ja und 25
artis ans</w> 25
fem ale</w> 25
Bant en</w> 25
Know n</w> 25
fel t</w> 25
max imum</w> 25
few er</w> 25
careg iv 25
phy si 25
Wild life</w> 25
रोज् जा</w> 25
महारास त्र</w> 25
मेघा ल 25
glimp se</w> 25
Saris ka</w> 25
consc ious</w> 25
आ सोल</w> 24
स ्रा</w> 24
ब फोरनि</w> 24
फ ो</w> 24
फ ्रि 24
फ साय 24
फ ्लि 24
ह ल 24
ह रा</w> 24
द खा 24
y o 24
y pt 24
u x 24
v o 24
v it 24
c en 24
c ities.	 24
. O 24
क था 24
A M 24
k al</w> 24
k lah 24
k itch 24
n ad 24
n av 24
ो न</w> 24
s ne 24
s ongs</w> 24
ग वायाव</w> 24
t old</w> 24
t aught</w> 24
प ’ 24
प न् 24
प ाया</w> 24
प ाया 24
व र् 24
ख बा 24
थ ं</w> 24
M il 24
h all 24
b it</w> 24
b ite</w> 24
b road</w> 24
o tri</w> 24
ड ु</w> 24
ज गा</w> 24
ज खम</w> 24
- जानो</w> 24
f ought</w> 24
f estive</w> 24
D ance</w> 24
ध ि</w> 24
N arm 24
N ear</w> 24
ं नाय</w> 24
ए त 24
ए ड 24
ए का 24
इ द</w> 24
m erg 24
m aster</w> 24
R av 24
p ath</w> 24
उ सि 24
C r 24
C he 24
ट ्रा 24
L al</w> 24
L am 24
अ लि 24
अ पारे 24
S m 24
S ind 24
S ai</w> 24
j ag 24
G ol 24
O klah 24
T B 24
P ond 24
I tal 24
E S 24
F ac 24
8 3 24
8 8 24
6 2</w> 24
an am 24
an ks</w> 24
in come</w> 24
.	 अ 24
.	 बेफोर</w> 24
था न् 24
er r 24
ar am</w> 24
at ely,</w> 24
re presents</w> 24
नाय फोर।</w> 24
ला निफ्राय</w> 24
ला हार 24
बा लु</w> 24
al - 24
al lo 24
सा मो 24
सा निफ्राय</w> 24
सा नाया</w> 24
सा सन</w> 24
सि स 24
सि ब</w> 24
जो है</w> 24
बि जि</w> 24
बि यान</w> 24
बि दैनि</w> 24
बे न 24
बे यावनो</w> 24
दा स</w> 24
दा लां 24
दा थायखौ</w> 24
दा सान् 24
रा फ 24
रा फो 24
रा ंख 24
रा जाया</w> 24
नि ख्रै</w> 24
ic ed</w> 24
सो नारि</w> 24
ac qu 24
is e.	 24
दि वा 24
दि यान</w> 24
el der 24
ur ine</w> 24
ti r 24
मि र 24
om en 24
हो जानाय,</w> 24
जि आ</w> 24
मु सल 24
मो ग 24
di t</w> 24
ad ap 24
ch ocol 24
गि र</w> 24
un able</w> 24
lo b 24
id e,</w> 24
ul i</w> 24
ul ous</w> 24
ag arh</w> 24
im bat 24
iv e.	 24
गे ं 24
गे ट 24
ak h 24
ir ts</w> 24
ंग ्र 24
दाव फोर</w> 24
no d 24
con sci 24
ex pres 24
be at</w> 24
ap pu 24
खालाम गोन</w> 24
ed )</w> 24
In dr 24
हाग ोन,</w> 24
जौ नि</w> 24
जौ सिन 24
com fort</w> 24
दै फोरनि</w> 24
दै थाय।</w> 24
op ul 24
मे ह 24
मे से 24
होन नानैबो</w> 24
थाव रि 24
दावबाय ग्रा</w> 24
sp ok 24
ear s</w> 24
रो जाब 24
का ला</w> 24
ले खा 24
ले खा</w> 24
कि .</w> 24
कि : 24
राय लाय 24
माव ,</w> 24
माव ो</w> 24
for tified</w> 24
हाद रा</w> 24
के लि 24
गाव आरि</w> 24
बै फोरनि</w> 24
eas e</w> 24
he ad,</w> 24
ill ustr 24
गोजा व 24
Ch er 24
गिरि फोरनो</w> 24
जायगा जों</w> 24
ri es,</w> 24
क् सनि</w> 24
थार खौ</w> 24
ग्रा फोरजों</w> 24
सिन था</w> 24
फै गोन।</w> 24
फै लाव 24
फ्र ु</w> 24
vis ual</w> 24
है ।</w> 24
जोब नो</w> 24
car dam 24
नोगोर आ</w> 24
Sh ir 24
ant ar</w> 24
pr ide</w> 24
loc als</w> 24
खोन दो</w> 24
au com 24
col um 24
ass ess 24
थै खौ</w> 24
थै दोंमोन।</w> 24
जों नाय</w> 24
cont ag 24
हाजो फोर,</w> 24
enc y,</w> 24
ess ence</w> 24
if y</w> 24
लोगो हम 24
हर ।</w> 24
उन दै 24
min i</w> 24
hol ding</w> 24
mar row</w> 24
bo ard</w> 24
माइ ल</w> 24
लामा फोरखौ</w> 24
fac ility</w> 24
फे न 24
tw el 24
sur face</w> 24
खार नाय</w> 24
थे का 24
ing.	 बियो</w> 24
fin anc 24
km s.</w> 24
थाइ खौ</w> 24
फाहाम सालि 24
cas c 24
Pr at 24
गाब जों</w> 24
खामानि - 24
ign s</w> 24
ip al</w> 24
te en</w> 24
des i 24
war ning</w> 24
सर ’ 24
India.	 बे</w> 24
An ti 24
hear d</w> 24
Par k.	 24
बेरामि फोरखौ</w> 24
centur ies.	 24
centur ies,</w> 24
sk ill 24
sk in,</w> 24
बायदि नो</w> 24
त्रि क</w> 24
फ्ल ु</w> 24
मोजां ,</w> 24
rem ind 24
rem ove</w> 24
add ition,</w> 24
फोरबो फोर</w> 24
bir d 24
लाखि नानै</w> 24
बैसो - 24
गुबुन फोरा</w> 24
anti c</w> 24
ven ue</w> 24
del icate</w> 24
आव ।</w> 24
गेले नो</w> 24
गेले नायनि</w> 24
pol lu 24
लोम जानाय,</w> 24
Shiv aj 24
नखर फोरनि</w> 24
hill ,</w> 24
इउ नि 24
उना वबो</w> 24
मुलै - 24
हिमा सल</w> 24
सामलाय जानाय</w> 24
सावगारि याव</w> 24
मनदिर फोरा</w> 24
â€ œ 24
ett e</w> 24
forest s.	 24
Ro h 24
equ ally</w> 24
ott a</w> 24
बाद निफ्राय</w> 24
सोरजि नाय</w> 24
गोहोम खोख्लै 24
डे ल 24
गासै - 24
गलाय नाय</w> 24
नेम खानथि 24
गाज्रि यै</w> 24
थाया व 24
थाया वनो</w> 24
थिखि नियाव</w> 24
Co imbat 24
आथिखा ल</w> 24
जुनार फोर</w> 24
back drop</w> 24
बृ तिस</w> 24
pat ron 24
खथा फोरा</w> 24
अज न्ता</w> 24
raf ting</w> 24
Gang to 24
water fall</w> 24
experienc e,</w> 24
reduc es</w> 24
एन् ति 24
गले यै</w> 24
hon or</w> 24
बायजो आरि</w> 24
टिका होनायनि</w> 24
famil ies.	 24
lak es,</w> 24
test ed</w> 24
tod ay.	 24
11 th</w> 24
नांगौ नि</w> 24
हिमाल यारि</w> 24
Ex erc 24
उन्दु नो</w> 24
साहा ,</w> 24
doc tor 24
Lak sh 24
Gujar at,</w> 24
any where</w> 24
हाग्रामा ,</w> 24
every one</w> 24
benef ici 24
थेरापि नि</w> 24
Ac adem 24
बल जों</w> 24
mot or 24
mot or</w> 24
bal con 24
मेलेरि यानि</w> 24
heav en</w> 24
Im ph 24
हान् था 24
दावबायहै नायनि</w> 24
nar row 24
improv ed</w> 24
Sah aran</w> 24
displ ayed</w> 24
vic inity</w> 24
prote ins</w> 24
बेसाद फोरखौ</w> 24
गारि जों</w> 24
resist ant</w> 24
बिगिया न 24
रांखा नथि 24
fil ari 24
syn agog 24
blood ,</w> 24
पलि अ 24
life - 24
लोगोसे ,</w> 24
bow els</w> 24
Brah ma</w> 24
नबे म्बर</w> 24
bes ide</w> 24
hotel .	 24
Sc i 24
thro at</w> 24
Chenn ai,</w> 24
जि. पि. 24
depres sion.	 24
Med ical</w> 24
ताज महलनि</w> 24
administ ered</w> 24
बागा नाव</w> 24
बारग नो</w> 24
guid el 24
Nad u,</w> 24
flav our 24
clos ely</w> 24
हांखो नि</w> 24
दिनै सिमबो</w> 24
ft )</w> 24
depress ed</w> 24
proper ly</w> 24
उसु -खु 24
The ir</w> 24
pray er</w> 24
Eleph ant</w> 24
थोजासे ।</w> 24
depic ting</w> 24
you' re</w> 24
खोम सि</w> 24
neigh bour 24
लोइखोन फोरा</w> 24
कम् पा 24
absor bed</w> 24
सुफुं नो</w> 24
quant ities</w> 24
रुगुं फोराव</w> 24
Mount ain</w> 24
राजपु त</w> 24
Kolk ata,</w> 24
Pakist an</w> 24
courty ard</w> 24
impl ement 24
Calcutt a,</w> 24
लक् ष् 24
Cam el</w> 24
charg e</w> 24
quick ly</w> 24
dram atic</w> 24
Diseas es</w> 24
होंगो दोंगो</w> 24
इनफ्लु ये 24
chickenpo x</w> 24
craftsm en</w> 24
Lat er,</w> 24
अक्सि जेन</w> 24
bud get</w> 24
Div ision</w> 24
Victor ia</w> 24
inspir ing</w> 24
diarrhoe a,</w> 24
गाग लोब 24
backwat ers,</w> 24
Hary ana</w> 24
leng th</w> 24
Memor ial</w> 24
Persi an</w> 24
Andam an</w> 24
dens ity</w> 24
साधार न</w> 24
all- fruit</w> 24
does n't</w> 24
Harid war</w> 24
circum st 24
philos oph 24
Vill age</w> 24
Hav el 24
क्लिनि केल</w> 24
Asho ka</w> 24
intric ately</w> 24
Mahade v</w> 24
poe try</w> 24
हाग्राय ारि</w> 24
अस्त्र - 24
Jagan nath</w> 24
enorm ous</w> 24
देंख ो</w> 24
Guruv ay 24
1 .	 23
9 7</w> 23
2 %</w> 23
आ ना 23
स रि 23
स लनि</w> 23
त ी 23
त ’ 23
त निफ्राय</w> 23
म द</w> 23
म ला</w> 23
ल सिम</w> 23
य ि 23
य द</w> 23
य र् 23
द ्रि</w> 23
a qu 23
e y.	 23
d og 23
d inn 23
i ana</w> 23
c ut 23
	 बे</w> 23
क ल् 23
न वा 23
न मा</w> 23
K m</w> 23
n erve</w> 23
l ago 23
s om 23
s ed 23
s es,</w> 23
s chol 23
ग ,</w> 23
t am 23
प ाय 23
थ ्राइ 23
M at 23
M att 23
M uch</w> 23
h us 23
b ic 23
b ile</w> 23
w n</w> 23
w on 23
' .</w> 23
ड ,</w> 23
( N 23
3 00 23
- up</w> 23
- बेर 23
f east</w> 23
f ooth 23
g ather</w> 23
D ue</w> 23
D engue</w> 23
ए क् 23
ए चि 23
m ere</w> 23
m ap</w> 23
p it 23
p ag 23
p ound</w> 23
p tions</w> 23
p ool</w> 23
च नि</w> 23
C el 23
C oun 23
5 ,</w> 23
5 5 23
z ha</w> 23
अ से</w> 23
S ank 23
W he 23
W ash 23
J aw 23
J ama</w> 23
j ack 23
V asc 23
P ach 23
B od 23
E ar 23
F e 23
F alls</w> 23
6 9 23
/ or</w> 23
7 , 23
U t 23
U m 23
% .	 23
an aem 23
in ess,</w> 23
जा ना 23
था का 23
था देर 23
था नायाव</w> 23
था गोन</w> 23
था ङो,</w> 23
आर ों 23
नाय खौबो</w> 23
it er 23
on es.	 23
ला ख 23
ला फोरा</w> 23
खा माय 23
हा बि 23
हा बे 23
हा फा 23
हा ब्लां 23
मोन फुं 23
मोन फ्रोम 23
सा इ</w> 23
सा ला</w> 23
सा हे 23
st o 23
st art 23
बि हार 23
गा दब 23
मा लु 23
बे हाय 23
दा उ</w> 23
दा जों</w> 23
दा मो 23
es ).	 23
रा मा</w> 23
नि ( 23
जाय ै 23
ac etam 23
is sion 23
फो जो 23
बु रु 23
मि रनि</w> 23
मि जरा 23
न् दो 23
Th ose</w> 23
हो थाव</w> 23
हो जादों।</w> 23
हो जागोन।</w> 23
जि म</w> 23
जि लाया</w> 23
गु दु 23
गु सुं 23
di phther 23
बो ला,</w> 23
ch amb 23
फा ते 23
लि स</w> 23
लि न</w> 23
लि निफ्राय</w> 23
tr ying</w> 23
ारि फोर</w> 23
id yl 23
हाय ना 23
et y,</w> 23
ul ating</w> 23
से ल</w> 23
सु फि</w> 23
खु गायाव</w> 23
खु गायारि</w> 23
no ted</w> 23
ex h 23
ex ac 23
be st 23
be ats</w> 23
खालाम नाय।</w> 23
मह लखौ</w> 23
फि थ 23
फि सि 23
li brary</w> 23
जौ गाय 23
com preh 23
ay urvedic</w> 23
le ather</w> 23
the tic</w> 23
per s</w> 23
दावबाय नाय।</w> 23
गुबु नारि</w> 23
माय रं</w> 23
का स</w> 23
वा ।</w> 23
दु र 23
मान दा 23
ep hal 23
माव दोंमोन।</w> 23
माव फारि 23
माव आगान 23
माव थिफोरा</w> 23
gr ounds</w> 23
gr ains,</w> 23
ah ar 23
के म् 23
par k,</w> 23
राज ् 23
खि न 23
गोसो दुंखां 23
पा ल</w> 23
पा नजा 23
cl er 23
he ad.	 23
गोजा ननि</w> 23
खर सा 23
्राय ै,</w> 23
ने त 23
ने हेर 23
जायगा फोरजों</w> 23
fe et.	 23
end er</w> 23
aw ar 23
br ass</w> 23
pre mi 23
pre pare</w> 23
ath y</w> 23
जोब थियाव</w> 23
न्द ्र</w> 23
ari es,</w> 23
aus pic 23
टा न</w> 23
सुबुं फोरनो</w> 23
बाहाय ो</w> 23
दान फोराव</w> 23
me ant</w> 23
18 0</w> 23
प्र सा 23
पि र 23
पि .</w> 23
सनस ्रायै</w> 23
थै या</w> 23
bl ess 23
हाजो आ</w> 23
ओनसोल फोरनि</w> 23
bre eding</w> 23
enc ephal 23
लोगो - 23
sc op 23
हारि फोरनि</w> 23
mo tion</w> 23
ser en 23
mus ical</w> 23
सोम जि</w> 23
Al ex 23
इन तार 23
mar ried</w> 23
bo l</w> 23
att i</w> 23
att ained</w> 23
St up 23
off er 23
acc ur 23
दावबायारि फोरजों</w> 23
बेराम - 23
दाय ै</w> 23
जारिमि नखौ</w> 23
फाहाम नाया</w> 23
फाहाम सालि</w> 23
cu stom 23
बाव सोम 23
खामानि जों</w> 23
ho st 23
hy dro 23
हम दां 23
cap ture</w> 23
लाइ ट</w> 23
war m 23
जागाय दोंमोन</w> 23
गोसार नायनि</w> 23
धोरोम ारिनि</w> 23
सर जाब</w> 23
rest ing</w> 23
नेर सोन।</w> 23
दाब ाव</w> 23
गनाय जानाय</w> 23
खाजा ।</w> 23
खाजा जों</w> 23
pur i</w> 23
Ar av 23
बिसोर जों</w> 23
बायदि ब्ला</w> 23
high ,</w> 23
फ्ल रि 23
सोमजि यो।</w> 23
सोमजि होनाय</w> 23
सोमजि होयो</w> 23
trad ers</w> 23
सोहोर ारि</w> 23
ob served</w> 23
.ए न 23
dep end</w> 23
फोरबो ,</w> 23
सनदेर नायखौ</w> 23
मिरु आ</w> 23
10 %</w> 23
bir ds,</w> 23
arm y</w> 23
अनजि मा 23
अनजि मायाव</w> 23
cer tain 23
lin e.	 23
lin e,</w> 23
सिबि थाय</w> 23
जाहो ग्रा</w> 23
bas is</w> 23
sym bol</w> 23
तु रि 23
adv ance</w> 23
adv ice</w> 23
adv anced</w> 23
हेफाजाब -खालाम 23
गेले नायखौ</w> 23
बिलो ,</w> 23
rang ing</w> 23
बुथुम सालिया</w> 23
vill age,</w> 23
Hind i</w> 23
खैफो दा</w> 23
200 1</w> 23
साइ क 23
सिया म</w> 23
aur i</w> 23
overn ight</w> 23
met er</w> 23
सामलाय ो।</w> 23
सावगारि नि</w> 23
सोलि बायथानाय</w> 23
मोननै खौबो</w> 23
ख्ल ा</w> 23
रायजो आ</w> 23
distric t,</w> 23
बिथांखि नि</w> 23
नागिर ो।</w> 23
forest ed</w> 23
monum ental</w> 23
commun ity.	 23
ve hic 23
resp ect</w> 23
progr ams</w> 23
organ ised</w> 23
meas ure 23
आमेरि क 23
establ ish</w> 23
खथा नि</w> 23
गोनांथि फोरखौ</w> 23
ush ed</w> 23
अन् ध्र 23
गाहा म</w> 23
Br id 23
hon ey</w> 23
जाथाव ै</w> 23
जाथाव नायै</w> 23
राजथावनि मोन।</w> 23
palac e,</w> 23
test ing</w> 23
मेग ननि</w> 23
scen e</w> 23
बौ ध् 23
आबहा वाया</w> 23
mid - 23
Ex press</w> 23
हाइ दरा 23
आखा -फा 23
मेगन - 23
मेगन फोरखौ</w> 23
Sik ri</w> 23
but ter</w> 23
बेद रनि</w> 23
stu ff 23
ten sion.	 23
Ab u</w> 23
wind ows</w> 23
Riv er,</w> 23
अम र 23
perform ing</w> 23
benef its</w> 23
मोदा इ</w> 23
Inter est 23
succ ess</w> 23
कम प्ले 23
कर् णा 23
बागान फोर</w> 23
बारस्लाय नाय</w> 23
flo ating</w> 23
resid ents</w> 23
लिं ग</w> 23
किमि )</w> 23
mother - 23
ox y 23
इस लाम 23
dre am 23
dre am</w> 23
बोनाय नि</w> 23
मुमबाय ाव</w> 23
खोब जानाय</w> 23
tou ching</w> 23
रांखा नथि</w> 23
गोथौ वै</w> 23
राजखुं गुर 23
सरासनस्रा ।</w> 23
एलार जि</w> 23
एन्टि बाय 23
आसार खानथि 23
top ograph 23
नुसार होयो।</w> 23
disc ipl 23
Koch i,</w> 23
minut es.	 23
elim inate</w> 23
shad es</w> 23
possi ble,</w> 23
dest ruc 23
pill ar</w> 23
she er</w> 23
आबाद ारि</w> 23
खेंख ्रि</w> 23
character ized</w> 23
recogn ized</w> 23
mom ents</w> 23
दी प 23
concer n 23
नांथाब नाय</w> 23
Progr am</w> 23
देलाय मालाय</w> 23
गम बु 23
खमै ब्लाबो</w> 23
foc us</w> 23
elev ation</w> 23
sat ur 23
3- 4</w> 23
regul ar 23
mir ror</w> 23
देव ी</w> 23
capit al,</w> 23
remov ed</w> 23
जादु गोनां</w> 23
Tow er</w> 23
Kath ak 23
जेब्ला सिम</w> 23
minim um</w> 23
Sikk im 23
nour ished</w> 23
बुंफब नाय।</w> 23
सिंह वा</w> 23
equip ment</w> 23
Moh amm 23
Indones ia</w> 23
faun a</w> 23
मैगं- थाइ 23
Av oid</w> 23
Nain ital</w> 23
जुरि जेन 23
सोदोम स्रि 23
insul in</w> 23
Hal f</w> 23
altern ative</w> 23
दिग दार 23
solu tion</w> 23
Bet ween</w> 23
Bhaw an</w> 23
clust er</w> 23
aig arh</w> 23
fash ion 23
सिल् क</w> 23
पुन े</w> 23
Rem ember</w> 23
Fo rest</w> 23
जोंख्ला बनाय</w> 23
हारसि ङै</w> 23
malnutrition .	 23
waterfall s,</w> 23
function ing</w> 23
jungl es</w> 23
माख न</w> 23
rug ged</w> 23
rapid ly</w> 23
Lah aul</w> 23
commemor ate</w> 23
बिमा-बि फा</w> 23
नसुं से 23
Maj or</w> 23
Jap anese</w> 23
hygi ene</w> 23
Ranik het</w> 23
मौसुमि बार 23
Meghal aya</w> 23
dun es</w> 23
gent le</w> 23
मेम रि 23
sensitiv ity</w> 23
AR T</w> 23
respec tiv 23
Georg e</w> 23
Tu berculos 23
रोजा- रोजा</w> 23
proxim ity</w> 23
impecc able</w> 23
kis sed</w> 23
Om kar 23
हाबा- हु 23
Flor id 23
wides pread</w> 23
दासान् दि</w> 23
twel ve</w> 23
idyl lic</w> 23
9 1 22
2 50 22
आ लि 22
आ ग्रानि</w> 22
स नो</w> 22
स फोर</w> 22
स ेरे 22
स लʼ</w> 22
स क्ल 22
ब म 22
ब जों</w> 22
ब फोरा</w> 22
फ थ 22
फ दब 22
ह ार् 22
म ल</w> 22
म बा 22
म थु 22
y ;</w> 22
r ak 22
r ing 22
r ough 22
e h</w> 22
e ti 22
d ri 22
c ak 22
c li 22
c af 22
क ै 22
न नाय</w> 22
A li 22
k - 22
K az 22
l en</w> 22
ो ब्ला,</w> 22
s . 22
s a</w> 22
s ’</w> 22
s ights</w> 22
ग गा 22
ग रनि</w> 22
ग ोना</w> 22
t ab 22
t able</w> 22
t ed.	 22
t ing.	 22
t ends</w> 22
व ायारि</w> 22
ख ब 22
ख ् 22
ख ारा 22
M or 22
h am</w> 22
b inge</w> 22
o or 22
ज मा 22
ज रा</w> 22
( or</w> 22
( 10 22
- इ 22
H D 22
f ro 22
g in 22
g am 22
g et 22
N ature</w> 22
ए न</w> 22
ए रि 22
ए पे 22
ए यार</w> 22
इ टा 22
m et</w> 22
R aj</w> 22
p and 22
p ace</w> 22
p over 22
p ip 22
p ack</w> 22
C ul 22
C iv 22
C lu 22
ट ले 22
L i 22
z en</w> 22
J hark 22
G ood</w> 22
G ond 22
V en 22
O ri 22
P T 22
P il 22
P aw 22
P lease</w> 22
B us</w> 22
B .C 22
E l 22
F ound 22
F rid 22
घ ण् 22
6 1 22
6 3 22
6 .	 22
7 3 22
7 1</w> 22
ाय ,</w> 22
th ank 22
an i 22
an a.	 22
an ical</w> 22
an thr 22
in ess.	 22
जा फोरा</w> 22
जा हां 22
.	 बेखौ</w> 22
था गिबि 22
था न्दै</w> 22
फोर बो।</w> 22
नाय या</w> 22
नाय थिं 22
नाय संनाय</w> 22
on to</w> 22
en ous</w> 22
ला नांगोन।</w> 22
हा फ 22
हा था 22
हा खौ</w> 22
हा जों</w> 22
हा थावना</w> 22
हा फानि</w> 22
सा खा 22
सा नो</w> 22
सा नाय- 22
बि गो 22
बि फोरखौ</w> 22
बि फा</w> 22
बि थिं</w> 22
मा ता</w> 22
बे जि</w> 22
बे गर</w> 22
दा क् 22
es :</w> 22
ic ally,</w> 22
जाय ि 22
el op 22
el ess</w> 22
as pects</w> 22
फो थाय</w> 22
बु ङो,</w> 22
मि स</w> 22
मि ना</w> 22
मि .)</w> 22
न् या 22
हो जायो,</w> 22
am id</w> 22
pl ants</w> 22
मु क् 22
गु फा 22
मो नारि</w> 22
बो नानै</w> 22
ad a,</w> 22
ch os 22
लि व 22
लि खौ</w> 22
गि ना</w> 22
tr ain 22
wh atever</w> 22
ab h 22
ab ov 22
us ed.	 22
av an</w> 22
un forg 22
ig ious</w> 22
id ols</w> 22
से ंग्रा</w> 22
रि फोरा</w> 22
सम फोरनि</w> 22
सम फारियाव</w> 22
गे लारि 22
खु सि</w> 22
खु ङो।</w> 22
ir i</w> 22
ंग ल 22
दाव हाया</w> 22
ex tra 22
ap ple</w> 22
ap par 22
खालाम फिन 22
oun ces</w> 22
स् थान 22
बां नो</w> 22
फि थायफोर</w> 22
In side</w> 22
In du 22
गाय ा</w> 22
जौ थाइनि</w> 22
and har</w> 22
and /or</w> 22
मे र</w> 22
मे हे 22
सान खो 22
गोर ि 22
लु थाय</w> 22
दावबाय फालांगि 22
नु जायो,</w> 22
नु थाय।</w> 22
वा जों</w> 22
ter ,</w> 22
बुं जायो।</w> 22
बुं दोंमोन</w> 22
for - 22
ang ing</w> 22
हि उ 22
देर फुनाय</w> 22
par ag 22
गाव बा 22
पु स 22
ast ery</w> 22
anc ing</w> 22
cl assi 22
oc t 22
we av 22
अन नायनि</w> 22
Ch ick 22
खर सा</w> 22
खर ङाव</w> 22
मिथि सार 22
fe at 22
ङा ।</w> 22
मै ला</w> 22
br inging</w> 22
ish ,</w> 22
जोब थे 22
हादोर साया</w> 22
pr ints</w> 22
pr oud</w> 22
टा वार</w> 22
बाहाय ।</w> 22
au ,</w> 22
au di 22
18 थि</w> 22
खुं थाया</w> 22
thr one</w> 22
सनस ्रा</w> 22
bl ed</w> 22
bl ended</w> 22
बानाय ो</w> 22
cont ent</w> 22
हाजो - 22
पे नि 22
ते लि 22
tri be</w> 22
Al appu 22
form ,</w> 22
ष् ण</w> 22
St u 22
pos s 22
acc o</w> 22
टे क 22
ord in 22
फोरा वनो</w> 22
दावबायारि या</w> 22
heal ing</w> 22
sur ger 22
बेराम फोराव</w> 22
to b 22
दाय बे 22
har a</w> 22
hel ping</w> 22
लैथो जिं 22
दोन ् 22
sel ected</w> 22
ith ic</w> 22
खन नाय</w> 22
स्त ार् 22
दिहु नजा 22
land mark</w> 22
जाव नायनि</w> 22
बिजिर नाय</w> 22
बिजिर नाया</w> 22
bel ong</w> 22
hi red</w> 22
त् तु 22
गनाय जायो।</w> 22
दिनथि योदि</w> 22
थाब नो</w> 22
sk y 22
थाखाय ल’</w> 22
treat ed,</w> 22
olog ist 22
dec ision</w> 22
दिहुन थाय</w> 22
attrac ted</w> 22
फोथाय ो</w> 22
फोथाय थि</w> 22
थासारि जों</w> 22
सोहोर खौ</w> 22
dep art 22
मिरु खौ</w> 22
trav ag 22
10 ,</w> 22
bab y.	 22
orn ate</w> 22
aff lu 22
गायसन जादोंमोन।</w> 22
गुबुन फारसे</w> 22
आखाय नि</w> 22
गोजौ सिम</w> 22
जानाय )</w> 22
जानाय फोरनि</w> 22
wal ks</w> 22
बिलो फोर</w> 22
यो ब्ला,</w> 22
राहा ,</w> 22
vill age.	 22
Kh w 22
मोसा नायनि</w> 22
nam es</w> 22
रान नाय</w> 22
14 0</w> 22
सामलाय नाय</w> 22
आखु थाय</w> 22
ju icy</w> 22
मोदोम फ्रु</w> 22
Go thic</w> 22
leg ends</w> 22
carv ings,</w> 22
बिगु रा</w> 22
यारि यै</w> 22
जोथोन ै</w> 22
एइ ड 22
hous es,</w> 22
खेब नि</w> 22
ett able</w> 22
नागिर ना 22
नागिर नानै</w> 22
गैय ैनि</w> 22
फसं जादों।</w> 22
मार् स</w> 22
वे ल</w> 22
सायख नाय</w> 22
गाथोन ा</w> 22
need s.	 22
resp ond 22
जाहा ना</w> 22
जाहा ननि</w> 22
कर नात 22
गोहोम खौ</w> 22
gar h,</w> 22
meas ure</w> 22
गासै बो 22
लैखोन - 22
सहै यो।</w> 22
ack s.	 22
pass age</w> 22
see king</w> 22
cam p</w> 22
you ,</w> 22
समायना सिन</w> 22
गोबा ङानो</w> 22
celebr ation</w> 22
डा क 22
मिनि त 22
Agr a.	 22
टाइ फ 22
wood ,</w> 22
wood ed</w> 22
गोबां - 22
मुलुग नां</w> 22
बेराय ग्लां 22
आफा द</w> 22
जिबख्रि फोरनि</w> 22
palac e.	 22
flu ids</w> 22
Bang lad 22
गाइ दनि</w> 22
appl y</w> 22
hor mon 22
craf ted</w> 22
Lak e.	 22
drin ks</w> 22
tal k</w> 22
दारि मिन 22
ज् य 22
bro ther</w> 22
lear n 22
person nel</w> 22
Gur ud 22
उरि स् 22
sch ed 22
Bangal ore,</w> 22
सना थि</w> 22
mosqu es</w> 22
handicraf t</w> 22
bacter ium</w> 22
बिखानथि नि</w> 22
tig ers</w> 22
reserv o 22
dre ams</w> 22
vac ations</w> 22
che ese</w> 22
trans formed</w> 22
खिरिमि नारि</w> 22
अख्रा ं 22
गोलाव सिन</w> 22
बिगिया नारि</w> 22
धि या 22
गसं ना</w> 22
occas ion</w> 22
Chur ch,</w> 22
settl ers</w> 22
Mun nar 22
गोख्रै सिन</w> 22
allow s</w> 22
list en</w> 22
हायो दि</w> 22
wher e,</w> 22
mind ,</w> 22
Bhop al,</w> 22
subst ance</w> 22
text il 22
इन् जु 22
महरदानख नाय</w> 22
draw s</w> 22
carp ets,</w> 22
एइस आइ 22
ym pt 22
avoid ed</w> 22
gi ant</w> 22
jewell ery,</w> 22
जानु वारि 22
हांख ो</w> 22
nest led</w> 22
bag h</w> 22
सिबियारि फोरनि</w> 22
yg one</w> 22
tissu es</w> 22
claim s</w> 22
techni ques</w> 22
फाइ खि</w> 22
pray ers</w> 22
रिं सार 22
confir med</w> 22
मैहु र 22
मैहु र</w> 22
snow - 22
Bir d</w> 22
Hyder abad</w> 22
Hyder abad,</w> 22
Stre et</w> 22
chem ic 22
cloth es</w> 22
बिदिन्थि ।</w> 22
रेइल लामा</w> 22
encour aged</w> 22
Kolk ata</w> 22
season al</w> 22
Kozhik od 22
isol ated</w> 22
establish ment</w> 22
गोरोन् थि</w> 22
nation ally</w> 22
motif s</w> 22
खुन्थि या 22
Sul liv 22
एना स्थे 22
adm itted</w> 22
अबस् था</w> 22
हज म 22
थांना थानायनि</w> 22
खाथिखा ला</w> 22
Panhal a</w> 22
luxur ious</w> 22
कफि ,</w> 22
रिंगा सिम</w> 22
children 's</w> 22
उरिष् यानि</w> 22
guest s</w> 22
monaster ies</w> 22
conqu ered</w> 22
enjoy ed</w> 22
young er</w> 22
Luc know</w> 22
नाङै निफ्रायनो</w> 22
afterno on</w> 22
Lakshadwe ep</w> 22
अरु ना 22
Tip u</w> 22
indul ge</w> 22
Darg ah</w> 22
Programm e</w> 22
Kedar nath</w> 22
कारब हाय 22
एमब्र य 22
Aiz aw 22
फ्राय नो</w> 22
metab ol 22
soo thing</w> 22
M. G.</w> 22
मुंख्ल ं</w> 22
दासान दि</w> 22
Saw ai</w> 22
jac ent</w> 22
Mumt az</w> 22
Nicob ar</w> 22
Sn ake</w> 22
Chal uk 22
Bil as 22
Corbet t</w> 22
sne ez 22
Interest ingly,</w> 22
unforg ettable</w> 22
Indu str 22
9 2 21
2 nd</w> 21
आ लाय 21
स ी</w> 21
स बाय 21
स फोरजों</w> 21
स ल’</w> 21
त जों</w> 21
त थ् 21
ब खौ</w> 21
ब द्रि 21
ह ल</w> 21
ह य 21
ह ाव</w> 21
म ब 21
म च 21
ल ौ 21
ल क्ष 21
ल सिस</w> 21
य ाया 21
द ंग 21
a ic</w> 21
r d</w> 21
r ad 21
r ains</w> 21
r ash</w> 21
v es 21
v igor 21
d ark 21
c ore</w> 21
c aught</w> 21
. m 21
. ला 21
क र</w> 21
क स</w> 21
क हि 21
क ला</w> 21
न मा 21
A N 21
A z 21
A ir</w> 21
k ing,</w> 21
n in 21
n ight,</w> 21
l ess.	 21
l amp 21
s h</w> 21
s q</w> 21
s ays</w> 21
ग साइ 21
ग णे 21
t un 21
t ong 21
ख ’</w> 21
ख ाव</w> 21
ख ेरा</w> 21
थ ेर 21
M y</w> 21
M T 21
M et 21
M aur 21
M ental</w> 21
h at</w> 21
h aun 21
b ,</w> 21
b ygone</w> 21
w ake</w> 21
o es.	 21
ज ्र 21
ज ्रि 21
( E 21
H a 21
H o 21
f ty</w> 21
f at.	 21
g ing 21
g one</w> 21
g ad</w> 21
g ames</w> 21
D o 21
D us 21
D am</w> 21
ए माव</w> 21
इ , 21
इ सिं</w> 21
m s.	 21
m e.	 21
m ation</w> 21
p ed 21
च ा</w> 21
च ण्डी 21
उ द</w> 21
उ ट 21
उ तिक</w> 21
’ ll</w> 21
C .	 21
C er 21
C ur 21
C are</w> 21
C ong 21
L .O 21
ङ ि</w> 21
J ungle</w> 21
j ,</w> 21
भ ै 21
भ नि</w> 21
V id 21
P ann 21
P ublic</w> 21
B ak 21
I Q</w> 21
8 3</w> 21
ऋ ष 21
ाय खौ</w> 21
th in</w> 21
th ouse</w> 21
ना निफ्राय</w> 21
an ad</w> 21
in her 21
जा गोन 21
जा जेन 21
था न</w> 21
था थाया</w> 21
er ated</w> 21
फोर जोंबो</w> 21
गो यि</w> 21
at y 21
re s.	 21
re vol 21
it ’s</w> 21
on a</w> 21
en ever</w> 21
ला थि 21
ला ग्रा</w> 21
खा लार 21
बा ल 21
बा न्द 21
हा खु 21
मोन फा</w> 21
सा फाय 21
सि आ</w> 21
सि उ 21
सि फोर</w> 21
सि ननि</w> 21
सि ङाव 21
or g</w> 21
जो मै 21
बि या</w> 21
गा न् 21
बे व 21
बे लाया 21
दा लु 21
दा ंखा</w> 21
दा जानाय।</w> 21
es sion</w> 21
थि आव</w> 21
थि फोराव</w> 21
रा खौ</w> 21
रा मनि</w> 21
रा ङारि</w> 21
नि रामि 21
ic a</w> 21
ic ity</w> 21
ic king</w> 21
el se 21
ur y,</w> 21
हो जानाय।</w> 21
जि खि 21
जि ंनि</w> 21
am y</w> 21
am en 21
am and 21
pl us</w> 21
गु ल 21
गु थि</w> 21
ati .	 21
di agnostic</w> 21
बो सो</w> 21
ch ann 21
ch ances</w> 21
लि फोर</w> 21
wh it 21
us cri 21
नो खि</w> 21
ul c 21
ag e- 21
ent ered</w> 21
से पते 21
रि यान</w> 21
गे व</w> 21
गे लारि</w> 21
ex cre 21
ing )</w> 21
खालाम नांगौ।</w> 21
स् के 21
दं -</w> 21
दं ब्ला,</w> 21
फि र 21
हाग ोन 21
गाय सन</w> 21
and - 21
मे थाइ</w> 21
मे न्त 21
सान ैबो</w> 21
सान हाब 21
le aving</w> 21
su s</w> 21
लु नाय,</w> 21
the - 21
per ,</w> 21
बार खौ</w> 21
बार लांनाय</w> 21
सन जों</w> 21
लो दो 21
नु नायाव</w> 21
नु गोन</w> 21
दु वार 21
कि द 21
माव ग्लु 21
gr y</w> 21
ang ered</w> 21
uc k</w> 21
ah e 21
all ing</w> 21
गाव जों</w> 21
महर फोर</w> 21
बै हाय</w> 21
खि न् 21
गोसो आव 21
गोसो नांनाय</w> 21
anc est 21
anc es.	 21
ne ither</w> 21
he ights</w> 21
ud ed</w> 21
सं नाय- 21
समाय नाया</w> 21
Ch ronic</w> 21
गिरि फोरआ</w> 21
क् सा</w> 21
19 थि</w> 21
थार नांगौ</w> 21
फै लाय</w> 21
vis ible</w> 21
wat ering</w> 21
हादोर फोरा</w> 21
ari um</w> 21
car cin 21
कु र 21
und ulating</w> 21
ru stic</w> 21
ell a</w> 21
बाहाय फुं 21
ard s,</w> 21
ph ase</w> 21
भा नानथा 21
comm it 21
comm ission 21
थै नो</w> 21
ग्ल ’ 21
Mah a</w> 21
over come</w> 21
बानाय दोंमोन।</w> 21
बानाय नाय।</w> 21
जों ल’</w> 21
cont ain 21
enc ed</w> 21
if ies</w> 21
loo ked</w> 21
जौगा थाय</w> 21
जौगा नायाव</w> 21
hol iest</w> 21
हाग्रा जों</w> 21
po t</w> 21
लामा निफ्राय</w> 21
खै ,</w> 21
nat al</w> 21
फे रा 21
to m</w> 21
import ance.	 21
trac k</w> 21
hel ped</w> 21
सोलाय ै</w> 21
km .</w> 21
gl and 21
gl uc 21
देहा -फाहाम 21
cas he 21
clud ed</w> 21
दोन थ 21
फिन नायखौ</w> 21
होब थायो।</w> 21
ik a</w> 21
jo ining</w> 21
थिं बो</w> 21
कि.मि )</w> 21
खामानि फोर</w> 21
थोर फो</w> 21
मुवा ।</w> 21
खन थाय 21
खन नै</w> 21
pati ent's</w> 21
cap tured</w> 21
आइ रन</w> 21
गोसार नो</w> 21
गोसार नाथानाय</w> 21
गोब्रा बै</w> 21
रों दा 21
enti rely</w> 21
गथ’ फोरनो</w> 21
rest .	 21
az z 21
नेर ि</w> 21
air - 21
hi ,</w> 21
त् य 21
16 0 21
man uscri 21
भु ब 21
cons ult 21
थावनि ,</w> 21
hand - 21
दिहुन सं 21
भे कसि 21
attrac tion.	 21
plac es.	 21
फोरबो आरि</w> 21
दर खं</w> 21
फ्रा न् 21
bir th.	 21
bir ds.	 21
develop ment.	 21
अनजि माखौ</w> 21
int ers</w> 21
int ense</w> 21
sou l</w> 21
Mahar aj</w> 21
जेन ेरे 21
lin ks</w> 21
सिबि नायनि</w> 21
फालि ग्रा</w> 21
फालि ग्राफोरनि</w> 21
Am ber</w> 21
गोजौ - 21
थान सालिनि</w> 21
लाफा नो</w> 21
रोखोम फोरनि</w> 21
रोखोम रोखोम 21
pol icy</w> 21
produc tive</w> 21
मोसा नाय,</w> 21
नेरसोन - 21
बिर ग्रा</w> 21
मुसु खानि</w> 21
मोन् नो</w> 21
200 6</w> 21
ome tric</w> 21
एल .अ 21
एम एम 21
मुलै नि</w> 21
राजा लामा</w> 21
ष्ट ्र</w> 21
ख्ल ु 21
Mad ur 21
dom inated</w> 21
साह ारा 21
जोबोर - 21
हानजा फोरा</w> 21
बारदेर नाया</w> 21
हाबाफारि फोरनि</w> 21
Tr aining</w> 21
आनजाद सालि</w> 21
स्ट ्र 21
Pl ague</w> 21
जाहा ज 21
सिमा ं</w> 21
हते ल 21
गिबि यै</w> 21
दिप फोरनि</w> 21
again .	 21
सौ है 21
phys ically</w> 21
ement s,</w> 21
well ,</w> 21
sand y</w> 21
Pun e.	 21
जेंना खौ</w> 21
क्रि म</w> 21
found er</w> 21
आरा ंगा</w> 21
cell s,</w> 21
paint ings.	 21
comp on 21
comp ound 21
गोम जोर 21
राजथावनि ,</w> 21
राजथावनि खौ</w> 21
Nag pur</w> 21
test im 21
सोनार ो</w> 21
educ ation,</w> 21
गोमा लां 21
swe ets</w> 21
pain ting</w> 21
cir cu 21
दम फां</w> 21
थाथानि निफ्राय</w> 21
Be ing</w> 21
facil ities.	 21
दनद र</w> 21
हाग्रामा खौ</w> 21
sett led</w> 21
decor ative</w> 21
sn ak 21
Hot els</w> 21
mer ch 21
sculpt ure</w> 21
Asi a.	 21
फोसाब नो</w> 21
गेदेर सिनथार</w> 21
resid ential</w> 21
Loc al</w> 21
Vis itors</w> 21
Kashmir i</w> 21
जाबो दों</w> 21
bacter ial</w> 21
diab etic</w> 21
grad u 21
बांसिन बाव</w> 21
राजसथा न</w> 21
Sah y 21
बिखा नथि</w> 21
fall ing</w> 21
vol can 21
estim ates</w> 21
epidem ics</w> 21
De e 21
Vi et 21
सोरखार ा</w> 21
गोथार सिन</w> 21
पलि अ</w> 21
past ,</w> 21
बारहा वाया</w> 21
Her e,</w> 21
पुरा म</w> 21
elim ination</w> 21
list ed</w> 21
abs ence</w> 21
फसंथा ना</w> 21
बिबु -बि 21
स्पे निस</w> 21
बिमा-बिफा फोरा</w> 21
Fr ance</w> 21
effectiv ely</w> 21
effectiv eness</w> 21
cav es,</w> 21
cav es.	 21
meth od</w> 21
pract ition 21
स्वा मि</w> 21
कला ह 21
concer ned</w> 21
लासै - 21
हों गो</w> 21
मोन्दां थि</w> 21
abdom en</w> 21
संदान नो</w> 21
summ er,</w> 21
थाम् फै</w> 21
ख्ला य</w> 21
arrang ed</w> 21
जानु वारि</w> 21
elev ated</w> 21
symptom s,</w> 21
bag s</w> 21
सिबियारि फोरा</w> 21
जध पुर</w> 21
पेरि यार</w> 21
exhib its</w> 21
kid ney</w> 21
आरज गाब 21
capit al.	 21
ward s.	 21
Hol y</w> 21
.एम .ए 21
हाथर खि 21
brok e</w> 21
Ap pro 21
HA ART</w> 21
WH O 21
univers al</w> 21
तेरि त 21
Band hav 21
किल मिटार</w> 21
carbohydr ates</w> 21
ses sion</w> 21
लैथो- सेर 21
cerem ony</w> 21
asp ir 21
देरा दु 21
बं स 21
tend er</w> 21
mach ine</w> 21
Sund ay</w> 21
furnit ure</w> 21
forc ed</w> 21
require d.	 21
इउरपि यान</w> 21
nut s,</w> 21
answ ers</w> 21
doub t,</w> 21
attem pt</w> 21
Govern or</w> 21
Vir gin 21
repe ated</w> 21
लोब् बा 21
बिफां- लाइफां</w> 21
sq .</w> 21
Aurangz eb</w> 21
Treat ment</w> 21
कलेस्तेर ल</w> 21
जथु म् 21
खाल म 21
गिलास से</w> 21
उसुखु थु 21
खेंख्रा - 21
Spec ial</w> 21
Triv and 21
Guwah ati</w> 21
Karak oram</w> 21
reason able</w> 21
Grou p</w> 21
substanti al</w> 21
eval u 21
Ayod hya</w> 21
बोरा य</w> 21
Iduk ki</w> 21
i. e.</w> 21
पो र</w> 21
cig ar 21
subsequ ent</w> 21
benefici al.	 21
Vasc o</w> 21
[...]
